conv_85_param_0 13.281046 23.256081 12.324489 9.966891 7.296230 21.474241 6.964867 12.942676 11.944159 18.674326 14.724638 11.813953 7.173875 35.129120 41.128399 18.142857 
conv_86_param_0 302.789276 384.189056 203.358871 103.130852 106.335243 159.470261 311.678864 453.919708 136.892639 244.221603 94.718132 571.325623 358.258942 147.865829 231.196442 395.884308 115.188660 329.443939 493.072998 113.183640 151.836548 235.168167 57.492485 203.996857 107.744820 315.267883 134.347107 305.277008 131.427994 306.716980 145.467560 360.993744 
conv_87_param_0 312.240082 159.666046 97.706985 358.753113 103.706535 131.560944 245.142319 173.977264 340.217133 130.178177 669.918884 117.266006 266.902008 269.809143 208.577393 225.191345 235.594208 194.246460 172.249008 163.274323 195.855423 91.454292 392.301666 155.373947 171.680527 271.357330 318.745087 132.229797 227.356644 263.789032 232.436096 182.267700 
conv_88_param_0 288.090759 203.977509 293.755920 129.369339 499.659607 365.398560 561.530151 146.117371 
conv_89_param_0 5.480663 4.322440 7.389199 4.367639 4.334244 8.081467 4.907854 5.180157 7.416822 6.229199 5.156595 4.114049 3.944334 3.950224 5.207349 3.754021 
conv_90_param_0 814.709473 329.027191 280.729614 217.835846 170.108566 208.243393 465.288025 493.072998 294.059906 288.354767 298.617676 271.215851 364.535400 200.073853 379.148682 211.288376 390.241547 127.248535 526.510132 347.954529 249.372955 253.011673 297.933563 209.585815 362.755920 235.168167 383.905548 180.622223 239.719818 478.998169 293.893799 150.867752 390.241547 388.783264 154.451309 301.385864 315.842133 203.996857 310.562378 325.730743 137.616928 184.465256 338.006500 327.164795 236.236145 182.908585 343.814941 384.189056 384.189056 270.229614 438.610443 514.023743 277.140106 443.093689 298.789215 284.880615 295.228149 317.383759 355.322418 338.446320 299.132843 203.677368 232.644012 344.498016 
conv_91_param_0 1240.028564 1038.825806 1147.693359 817.269470 733.181091 482.105652 830.314453 1410.690186 1361.759155 1389.030762 336.476074 1709.751831 651.869690 335.824402 746.865784 867.709778 296.236908 1197.909058 1083.169189 674.260559 788.169678 1577.534546 1932.003662 1143.279175 1210.452637 1303.739380 1376.169312 754.995667 642.212341 1191.734253 825.046814 1382.570068 684.463135 1392.749634 849.293091 340.662750 1540.168823 1506.711060 1130.852173 782.243591 905.469116 990.841919 843.098877 1018.985291 903.111084 906.257812 907.839417 610.554016 1231.223633 1068.704712 826.357422 1416.452026 679.101807 839.696533 854.875916 1170.285767 770.654785 1581.130737 725.511841 1115.095337 705.823608 997.491821 1752.963745 871.343384 
conv_92_param_0 398.004578 155.466827 280.275848 256.504944 276.403839 292.242706 311.678864 164.098419 192.378693 174.210312 274.362854 378.321442 247.474792 320.315277 298.960907 168.455963 236.021774 270.651398 129.918076 288.514709 137.908798 245.373581 245.373581 301.037048 227.954422 206.753571 330.071075 266.628387 128.633041 314.315399 524.651550 261.140564 432.412292 239.940964 552.807678 157.633942 335.607727 408.955963 305.277008 372.897491 140.516479 449.215881 304.028046 300.689026 472.901825 457.915497 325.119995 570.073425 486.160736 320.710236 372.630371 543.565308 620.384033 536.833862 298.617676 487.984985 330.700562 304.205841 349.356628 457.915497 431.694611 389.365265 395.282684 284.257935 
conv_93_param_0 118.117210 110.799301 135.730621 114.910408 41.906269 113.472740 123.758286 66.724121 41.740959 55.206955 50.069401 64.422119 121.975021 50.227848 153.817078 55.206955 
conv_94_param_0 44.899574 60.407230 72.557716 72.227531 29.419832 48.724483 65.790672 47.308495 77.001816 48.799385 34.902695 52.382839 97.749039 50.108917 78.283600 34.151695 51.532467 57.247971 38.712196 68.784401 52.382839 60.812260 40.005039 69.690453 42.552280 65.316872 42.184719 63.807034 96.193939 56.534283 50.668797 87.751213 
conv_95_param_0 342.908386 391.416107 188.475357 255.748276 252.275467 304.740479 267.313477 257.776001 276.550781 136.605042 250.092300 322.699738 220.420334 248.657745 399.533020 328.611511 274.797668 320.908081 275.525421 328.611511 334.098907 352.194977 325.119995 285.506042 272.209320 556.355103 211.288376 261.403015 287.398895 269.809143 283.174744 439.722748 505.531586 201.624802 504.550934 520.192017 360.993744 237.530594 261.797699 240.162506 542.714661 232.021408 303.142181 310.747894 233.689133 253.258026 162.763458 286.449341 277.731995 227.954422 290.935120 328.819214 649.023071 174.795700 234.320724 419.509674 261.797699 305.815399 224.220688 450.382690 347.026031 422.920319 667.340576 501.148376 245.373581 235.380997 505.531586 385.613037 205.284927 183.295273 205.447083 187.524155 228.957748 218.201340 260.747864 402.625397 190.407028 297.082825 420.867310 299.304962 209.417068 113.479927 286.134216 265.133545 372.897491 403.562439 349.591400 344.954895 365.047028 272.494507 223.258362 321.304504 220.233704 299.477264 119.200737 247.239548 181.758209 152.548981 335.391357 304.205841 305.277008 303.495911 339.108215 283.792694 366.849091 1054.087158 313.557556 306.536255 484.350098 219.675674 382.213074 523.595398 241.949768 189.298401 385.327393 403.875763 216.927444 242.400742 292.078613 232.228577 173.166443 290.935120 291.097931 574.480408 250.815811 337.787018 154.451309 365.560089 
conv_96_param_0 566.966736 426.037689 496.840485 561.459229 525.977783 453.919708 483.449829 817.269470 391.416107 420.187408 422.576752 422.576752 519.412903 542.714661 516.575989 440.840668 400.764252 1312.787354 465.288025 885.433167 303.673096 1107.380493 591.799744 694.515381 624.855286 671.648804 911.019287 922.326233 687.629883 368.669037 556.057739 643.006165 1178.237793 505.531586 395.583282 761.628113 527.043579 581.870239 723.493713 573.530334 491.674866 693.589355 618.539856 574.797791 1386.254517 553.985107 601.030640 768.378113 697.776001 1293.205688 490.284637 1165.696411 434.943146 426.037689 847.908691 479.881927 714.549438 677.333313 688.540039 917.446228 672.082703 518.377686 1101.518311 472.901825 519.412903 410.246063 648.618469 669.057251 807.124878 626.360046 893.033447 485.253723 784.012085 402.313995 856.283142 479.881927 564.505676 525.181213 821.788330 583.501953 635.155090 501.631622 516.832581 436.036896 578.956055 644.999390 427.789459 916.637878 371.300507 430.979279 693.127258 490.747162 1354.666626 454.316162 429.910736 1041.946899 614.158203 394.682861 746.329956 756.093018 604.522949 1067.060547 609.124146 606.284363 746.865784 470.761993 449.993073 473.763214 581.870239 444.988892 647.810730 487.984985 514.786743 560.853882 799.680237 701.540100 1164.391724 902.327820 763.864929 481.213684 507.504395 478.998169 1419.350586 621.867310 552.220825 363.516418 655.153625 451.163910 
conv_97_param_0 233.269958 178.270050 156.495789 188.202606 166.621399 291.587433 152.281036 174.093704 154.268097 227.754822 153.268127 235.594208 199.154678 254.871140 145.386246 202.566971 266.902008 232.228577 342.231567 375.589905 185.650253 326.343781 264.863556 174.795700 153.087692 136.748688 403.562439 268.555511 184.990036 195.560898 311.492218 257.520782 201.937881 182.395508 230.991119 156.495789 225.973938 312.427643 212.844513 157.921066 144.497772 247.004745 284.880615 272.923401 298.446350 279.823547 120.862457 244.451126 175.621872 360.243774 138.275391 267.313477 166.621399 340.439789 212.323273 235.380997 162.357056 95.693893 273.641235 144.578094 134.974579 259.836151 111.821152 253.752197 204.317368 117.160362 207.910477 220.794571 228.555359 257.011871 278.773834 163.479568 220.982162 352.672546 273.929443 104.962067 79.784050 285.819794 339.329407 263.388367 188.475357 122.340546 113.479927 122.686790 317.190247 238.620178 255.622604 277.880341 204.156982 214.070786 180.121887 272.209320 237.530594 174.327072 278.773834 240.384476 338.006500 222.684937 222.494446 204.477982 138.422562 215.847305 231.402130 167.371948 201.468628 209.754837 145.305023 233.479355 268.694214 138.791885 314.315399 403.249603 298.275238 392.894257 179.006195 331.332489 219.305222 302.085938 190.966232 233.689133 373.701141 242.175049 210.433655 300.862915 88.407883 338.226257 174.913254 296.913239 
conv_98_param_0 269.669250 293.893799 321.304504 367.367218 253.752197 433.132385 286.765167 366.590546 280.426941 485.706818 520.973450 269.809143 451.947876 317.190247 483.449829 352.911804 428.494232 775.826965 332.603577 448.055115 334.098907 385.327393 264.325195 290.772491 335.391357 345.413025 560.853882 488.443207 421.208099 443.849823 425.689026 588.785522 
conv_99_param_0 168.020676 188.748917 128.696686 164.721970 129.272369 210.093704 152.370239 263.255066 240.606842 202.094788 196.003021 288.354767 165.666245 205.935074 76.997040 115.290779 199.613205 134.764771 178.514755 209.585815 225.581955 92.298080 164.826355 157.252716 179.997238 192.663696 190.267746 155.746109 177.297882 207.578613 198.850159 184.465256 
conv_100_param_0 68.784401 67.325554 46.240349 109.935928 88.794403 59.168686 77.566277 62.580582 58.406624 93.917160 67.041183 105.813332 57.979908 122.919655 192.679825 80.262955 93.917160 90.181816 101.988754 107.152740 75.356674 78.477135 102.981346 104.078690 81.447083 97.975311 67.112053 85.678810 98.814011 80.517441 63.329678 58.406624 
conv_101_param_0 85.621040 72.145454 107.606781 117.136528 108.433815 64.816742 63.903374 110.606270 91.812004 143.556808 61.519379 128.064545 126.281448 91.218391 45.155048 68.083649 80.568527 92.954613 109.556511 107.972786 71.135017 98.278641 79.909378 124.000000 65.519089 60.349812 105.637268 67.937935 110.126625 119.901794 113.574242 132.335587 
conv_102_param_0 156.470734 195.799530 204.800003 177.464706 242.783936 200.119781 99.823898 262.076355 189.516418 82.398445 132.542801 142.031326 368.046387 120.814461 76.307693 186.318420 213.944397 118.117210 267.036804 182.830811 238.676697 212.334442 199.647797 122.209816 172.521744 155.607849 218.924133 199.962204 141.872620 160.525909 117.461609 129.237656 
conv_103_param_0 58.032906 37.611374 59.781544 55.206955 55.789104 52.862614 78.477135 51.490673 89.419716 64.000000 41.360260 74.867928 72.557716 39.117683 26.299917 49.872742 67.076599 86.319511 48.874519 63.424576 41.576950 74.298424 57.768879 79.112770 58.460403 50.628387 69.499725 73.609276 74.168221 67.504517 62.488190 65.790672 
conv_104_param_0 449.604156 320.710236 511.748169 342.908386 311.865723 196.744324 389.949036 334.098907 391.710846 456.308777 399.226410 206.425400 431.694611 420.527069 409.922760 259.576843 451.163910 390.827942 334.098907 560.249878 261.665985 455.908844 325.119995 385.613037 285.819794 403.249603 189.160721 329.861755 322.100311 258.802002 403.249603 304.562073 274.073761 262.855988 358.753113 285.662811 573.530334 355.808472 429.201324 321.503082 362.250702 405.765991 469.064026 407.354736 508.745239 251.300476 415.820953 556.355103 324.107178 371.300507 400.147705 381.372437 342.006561 357.520264 441.964325 336.476074 380.535492 313.746674 326.753754 520.452209 297.592682 460.754639 309.269928 169.003250 
conv_105_param_0 198.850159 407.993713 360.743408 276.992554 299.995392 469.064026 378.872528 426.386871 364.791016 339.772705 323.502502 275.379578 315.076935 352.194977 332.178802 268.972076 376.677765 438.240936 351.006744 243.535583 257.520782 604.874390 587.455688 341.557465 716.517883 312.803375 197.341431 217.653549 267.039001 274.942932 275.671448 341.557465 498.745911 234.532013 261.271729 374.238861 584.813965 374.778107 381.093048 327.576813 254.621628 193.236252 500.666016 286.134216 491.210571 296.913239 665.632751 576.070862 338.446320 699.182800 391.416107 494.479095 346.563629 391.710846 409.600006 488.443207 441.214600 267.726196 259.059753 257.138916 894.569214 296.913239 354.354218 299.477264 324.511536 356.295898 498.745911 400.764252 601.725830 186.181824 344.726318 309.269928 345.872345 447.669525 509.992157 301.560577 339.772705 258.930817 665.632751 335.607727 341.333344 554.575684 349.122162 425.689026 336.258575 352.672546 469.911469 732.149170 580.247620 593.149353 274.797668 553.101562 323.703796 521.757263 255.497055 387.913483 521.757263 421.549438 572.268433 262.061462 343.587860 627.493347 401.382721 757.745056 493.072998 255.874084 205.609482 460.346893 594.505127 527.310669 451.163910 357.029510 461.572327 503.087036 282.713043 394.982544 266.628387 297.082825 457.915497 467.798553 613.795898 461.163116 382.775574 337.567810 280.124939 466.539917 831.641907 585.472168 
conv_106_param_0 371.565704 1326.174683 875.007568 806.499207 1418.383057 969.602966 1163.740479 1493.731567 806.499207 956.235291 770.084412 1633.255859 856.283142 1184.947632 1210.452637 1059.993896 771.798218 691.285034 2069.386475 942.376831 849.986938 1578.731445 1205.543457 1197.909058 963.318542 957.114990 957.996338 850.681946 897.656616 1267.987793 815.347961 1201.367188 1121.103394 595.526062 728.050415 833.641052 842.416199 933.079834 870.614197 1490.521484 745.260742 1100.353271 961.537903 1147.060669 1044.038086 1527.729858 697.776001 942.376831 1105.615356 1214.692383 879.445496 1201.367188 813.435486 763.864929 1498.033081 1232.682495 821.788330 770.654785 542.997925 966.001831 1256.502441 1095.141113 1129.624268 772.945007 617.438599 1100.353271 1021.988220 1494.804565 807.124878 1523.256226 1167.658813 1244.478516 1405.924316 1026.525879 947.526428 1630.695923 822.437927 834.309570 969.602966 795.400635 999.408264 878.702698 350.297638 1218.248291 478.557495 1149.595581 1269.535034 1024.504150 1399.306030 1118.091309 869.886292 1535.622192 825.701599 876.481873 1009.101868 873.538208 1203.451660 804.006165 772.945007 1031.104004 598.265686 643.403809 685.364929 1270.310181 2110.312256 927.258484 1043.514526 1167.658813 1295.621460 1242.991577 842.416199 832.973572 1141.397705 1102.101685 1240.028564 967.799072 843.782654 684.463135 945.803650 651.869690 603.471008 1456.100830 1228.316406 1039.344604 1335.537842 1500.193237 1390.887695 1614.249756 954.480713 887.699646 1298.856445 1346.775391 1003.263245 911.817688 1035.723267 964.211304 746.329956 877.220886 989.899170 999.408264 791.166565 968.700195 827.014282 850.681946 824.393005 629.772400 1032.639160 925.608521 979.645935 774.095215 1012.046692 883.178284 942.376831 686.269104 1087.130615 1129.011353 814.071960 723.493713 828.991211 598.954529 998.449158 1184.273193 740.486816 895.339050 1061.074951 1391.818115 827.014282 644.599731 849.293091 1224.701538 1120.499756 1741.228394 763.864929 1789.138428 965.105774 933.917419 1172.263672 759.404358 1259.544800 1519.918213 1180.242798 943.231201 1091.121094 1243.734619 1601.822998 1006.174072 1381.652100 1760.379028 987.081604 918.255981 1453.050293 645.800110 1226.867920 693.127258 526.243774 1035.723267 1104.441650 1552.811890 853.473328 928.914307 1752.963745 1339.837769 1128.399170 828.331238 1297.236938 737.861023 1664.614380 890.739746 1795.313232 1582.333130 1053.553467 791.768616 1059.993896 1441.973633 873.538208 1008.124023 882.429199 1124.739502 885.433167 1604.292969 1961.138550 852.075378 1620.535767 694.515381 765.551147 959.763855 896.882751 1671.299561 1138.898682 786.977295 1143.279175 1086.562866 2372.597412 839.019348 910.222229 951.860962 1144.536865 1303.739380 856.988464 1183.599487 1050.362427 1233.413208 1033.665161 1623.063965 918.255981 1193.100952 1461.213501 1383.489380 733.698181 537.388428 1523.256226 1579.930176 763.304504 1109.151367 560.551697 975.055298 
conv_107_param_0 433.854889 372.097290 393.786530 264.190948 369.454559 564.812134 523.068909 418.834137 362.755920 270.370056 627.872070 339.994781 316.803894 418.160767 286.923340 388.202972 319.528259 564.505676 432.772034 372.630371 465.288025 275.379578 342.006561 410.894165 403.249603 414.826141 230.377319 346.794678 424.300171 472.472290 246.536499 350.770050 428.847473 385.899109 362.755920 338.226257 409.922760 512.757019 280.426941 204.317368 357.766174 366.332397 278.773834 222.684937 365.047028 517.604004 347.954529 410.569855 306.897949 255.748276 383.339722 475.495422 308.719299 359.994476 450.382690 380.535492 245.373581 412.850800 415.820953 338.887299 329.235443 527.578064 305.097961 365.817169 384.473022 350.297638 324.107178 389.365265 375.861267 386.759857 307.260498 336.693848 409.277740 417.154785 316.226135 281.184875 237.747711 256.504944 269.949158 304.740479 307.079102 405.765991 357.029510 542.997925 395.282684 315.459076 336.911926 351.956696 371.300507 434.217041 284.568939 301.560577 309.086151 70.031235 534.901794 403.562439 352.433594 347.257690 467.798553 334.743896 406.717743 199.154678 457.110718 395.884308 215.489639 246.536499 345.642517 440.094757 605.931274 428.141571 325.730743 510.492645 328.611511 385.327393 367.626862 460.754639 361.495483 236.881607 403.562439 292.900909 369.980072 428.494232 494.949585 262.590607 517.604004 354.354218 278.475372 244.451126 557.846619 333.242798 442.340149 344.954895 463.216370 401.692657 455.509644 309.822510 361.244446 416.486786 499.224579 727.541260 369.454559 350.061920 386.759857 437.872040 273.641235 444.608551 388.783264 363.516418 301.560577 506.516052 355.565277 436.402679 364.280121 367.367218 405.449738 539.338501 293.562073 363.009064 292.571442 257.903809 300.515320 587.124146 511.496552 281.336945 419.509674 368.407928 342.682465 435.671692 255.874084 427.087036 313.936035 546.707275 408.955963 524.387085 297.252563 342.231567 452.734558 556.950745 513.769897 338.446320 383.622406 381.652252 336.041351 334.313629 512.757019 421.891327 477.678619 224.802078 417.489563 263.388367 322.699738 301.735504 299.477264 322.299866 297.252563 464.042816 248.420242 373.164978 317.771545 382.213074 280.124939 432.772034 398.614563 517.604004 376.133057 232.021408 310.192017 500.184601 248.657745 326.548645 263.388367 529.188171 398.614563 502.115845 433.493347 683.114929 313.180023 394.982544 443.849823 459.939880 401.692657 344.498016 519.153687 500.184601 462.804260 409.922760 355.808472 492.140015 504.550934 336.258575 425.340973 333.884460 516.063477 334.959442 688.084656 450.772949 391.416107 341.557465 264.728760 473.763214 281.336945 312.803375 194.974518 336.041351 427.437958 329.235443 390.827942 276.403839 405.765991 503.087036 390.827942 373.164978 407.673981 247.239548 367.367218 363.009064 
conv_108_param_0 503.087036 405.133942 478.117645 487.984985 253.011673 632.068054 863.389221 491.674866 420.867310 574.480408 800.911499 457.915497 247.474792 467.798553 402.625397 562.369751 436.769104 333.670288 255.497055 608.411682 230.581558 414.165619 483.449829 509.243256 337.130280 551.635193 497.791382 502.600952 643.006165 723.493713 501.148376 407.993713 515.041565 557.249084 450.382690 279.072968 593.487732 397.396484 235.594208 802.146484 412.196503 407.673981 603.821228 263.655334 562.065918 419.509674 524.122925 433.132385 444.608551 492.140015 558.745422 578.634033 620.014282 430.622528 459.533569 348.420624 310.007141 689.909790 427.087036 121.653885 618.172302 398.614563 326.753754 449.604156 
conv_109_param_0 324.916931 276.550781 236.236145 179.748444 323.502502 249.134094 197.791641 247.239548 231.814621 292.736084 287.557770 300.515320 253.258026 168.674454 259.576843 262.988892 358.505859 264.325195 366.590546 176.216797 297.252563 243.992493 234.532013 171.793930 246.303024 245.605286 307.988159 265.268738 297.082825 316.418488 320.710236 271.924713 324.309235 174.210312 243.307770 309.269928 209.924133 312.991577 221.735718 244.911484 202.094788 226.761993 325.730743 332.816376 327.164795 261.403015 240.606842 210.263535 199.307281 188.748917 292.078613 331.332489 278.475372 208.076797 256.884949 232.644012 263.521790 345.872345 250.574188 245.605286 302.437195 275.379578 224.607941 207.247803 
conv_110_param_0 83.208389 137.345596 89.862701 116.705879 110.031197 89.231201 125.532379 74.956314 124.303474 59.669174 85.104561 42.156708 146.201492 119.788681 114.599281 158.028625 102.565430 93.709229 123.879021 114.806511 106.792259 132.681290 57.351398 93.640121 115.223228 86.437035 62.984127 110.413910 150.713348 87.029472 95.255814 43.664375 105.725227 234.273056 171.705200 87.449036 98.814011 90.117813 45.090908 101.499603 111.873131 118.669159 168.963409 129.965195 88.608513 103.908348 162.373398 130.566574 42.156708 149.824188 147.389435 183.491333 92.548103 123.637779 91.679420 148.858154 97.448967 115.959816 119.226288 108.992271 86.202309 154.943253 132.820084 35.271111 
conv_111_param_0 170.095108 142.830139 212.690125 124.792137 202.030228 172.404617 58.086002 191.806641 150.089828 218.359421 108.992271 157.148514 152.249405 168.626831 276.636169 158.720001 144.949768 212.690125 169.981262 168.180130 176.723724 247.758041 76.445518 242.089615 225.334518 158.225540 281.699402 247.035019 214.667801 196.101929 440.506500 134.366135 190.226212 205.130859 86.791527 214.486481 188.671616 66.584160 204.800003 213.225861 182.962540 146.370026 192.387878 123.277672 72.268639 209.013992 251.437622 203.813797 309.886505 102.981346 77.756279 91.944969 141.477432 147.475037 136.533340 153.723969 177.962158 107.881050 165.548889 95.830940 302.503876 179.852692 102.400002 236.234421 
conv_112_param_0 253.951996 241.628922 249.216873 316.254059 142.669662 273.360596 242.320618 86.673035 324.954559 221.212540 187.834320 246.555344 368.046387 225.935944 196.557281 311.025116 210.923584 317.043701 242.552048 368.313263 174.898071 167.073685 217.052994 294.778870 225.334518 302.503876 359.705383 233.411758 174.777695 257.688477 211.803177 329.380035 119.563087 184.424103 274.988617 79.014313 429.335602 136.459961 1141.998901 152.340729 268.164734 279.682831 98.814011 169.188538 243.715927 149.647614 781.992310 322.683594 247.516571 337.477753 242.089615 308.944031 239.803589 153.445312 138.017395 148.770950 368.848206 289.569000 208.499176 296.499695 172.521744 89.293953 96.780487 308.194183 
conv_113_param_0 155.894409 197.014740 235.795731 225.935944 117.244690 167.735794 85.161636 210.573792 121.508133 147.904480 164.051682 201.229797 126.849152 138.017395 111.480247 168.851059 147.475037 175.018600 150.356430 206.801300 188.112595 108.712326 155.607849 129.765961 61.939510 168.851059 152.615387 181.264816 125.346497 149.824188 70.346817 155.322327 135.658127 115.537758 71.135017 164.583282 167.404083 34.243797 155.990173 164.583282 45.155048 169.414276 147.990677 115.432724 130.970596 82.559166 163.523499 97.374229 172.170853 109.745895 113.879822 49.755486 123.758286 58.676525 81.342728 193.708618 122.209816 177.962158 130.098358 231.075516 101.418533 148.770950 196.253479 135.441071 
conv_114_param_0 622.239258 560.551697 696.841248 579.278381 222.304276 551.050842 800.295410 607.346191 487.527649 179.129471 840.374817 705.823608 515.807617 386.185608 628.630798 574.797791 716.517883 679.545410 438.610443 825.046814 523.068909 639.056519 590.456299 516.063477 926.432739 413.836121 468.219635 612.711426 531.621887 620.014282 308.170624 215.133163 537.944153 565.733521 600.336975 451.163910 520.712708 638.664185 196.003021 737.338074 687.175720 725.511841 714.059021 341.781860 633.222168 502.600952 401.382721 416.153595 498.745911 495.893219 601.030640 788.767273 878.702698 628.251221 643.006165 613.433960 441.589142 612.711426 538.779907 602.074097 352.672546 633.607788 531.621887 736.815857 792.975586 542.431702 567.275879 633.222168 255.121140 631.684265 559.647095 663.933655 550.176636 619.276184 731.634338 709.191528 228.957748 774.671631 433.493347 707.744202 455.111115 692.665771 491.674866 349.591400 565.118958 728.560242 653.918274 732.664795 762.744873 518.636108 638.664185 470.336334 712.104065 574.480408 400.147705 506.516052 660.561279 532.165710 677.774597 284.102661 585.142883 467.798553 834.979126 597.921814 449.993073 495.893219 567.895203 632.068054 192.806519 601.725830 589.786865 718.993774 591.463318 504.062012 578.634033 640.630554 639.056519 481.213684 538.779907 742.071350 460.754639 482.552887 814.071960 433.854889 788.767273 606.637878 597.921814 298.104309 
conv_115_param_0 736.294434 645.399475 747.939636 758.297363 702.487488 732.664795 393.488647 630.918152 613.795898 571.325623 1100.935425 782.832214 792.975586 688.084656 726.018127 624.480164 912.617554 673.387695 639.449280 917.446228 673.387695 692.204895 883.178284 828.331238 896.110229 804.006165 650.239990 337.567810 791.768616 619.645020 1084.298096 789.365723 1050.362427 1054.087158 849.293091 638.272400 770.084412 651.053833 887.699646 651.461487 581.544983 567.895203 495.420959 836.321533 948.390137 544.133911 629.391418 683.114929 893.800659 755.543945 628.251221 817.911926 916.637878 857.694946 871.343384 432.053162 494.009491 673.387695 875.007568 782.832214 761.628113 516.575989 623.731445 493.540802 825.046814 1008.124023 690.367615 779.898071 796.009155 860.532654 674.260559 654.329590 917.446228 453.128906 802.146484 613.433960 896.882751 743.131409 623.731445 1053.020264 177.056503 562.978333 924.785767 691.744690 594.845032 656.808105 440.094757 770.084412 644.999390 849.293091 593.826477 779.898071 883.928650 535.176941 849.293091 645.399475 848.600342 821.139709 307.442078 761.070984 702.962158 658.054382 598.609924 636.320496 622.611633 827.672241 552.807678 636.709900 847.218262 656.393677 1020.484558 832.307190 827.672241 728.050415 776.405945 233.060928 627.115112 934.756531 777.566528 532.438049 679.101807 616.341248 735.253723 731.634338 658.470886 942.376831 757.745056 558.145935 1167.658813 570.073425 712.104065 789.965088 602.771729 738.384644 354.354218 555.167542 804.006165 1032.639160 983.349731 550.176636 570.385986 552.220825 631.300964 752.266113 966.001831 768.378113 715.532349 592.473816 548.436462 771.798218 776.405945 964.211304 232.436096 866.986694 602.074097 475.495422 647.810730 593.487732 1170.285767 826.357422 573.846680 464.872192 692.204895 669.487793 854.875916 776.405945 845.840637 693.589355 656.393677 529.727112 731.120178 699.182800 763.304504 863.389221 844.467529 916.637878 775.826965 757.193604 586.793030 737.861023 428.141571 493.540802 549.305176 735.773682 557.547668 889.977783 728.050415 980.569275 896.882751 517.861633 659.723511 601.378052 528.919189 874.272278 1143.907593 744.194580 884.680298 603.121155 871.343384 810.899475 648.214355 753.355530 528.650391 684.463135 559.045654 843.098877 508.496582 586.131836 669.918884 769.514771 841.054138 642.609009 723.493713 738.384644 644.200623 856.988464 617.805237 1042.991455 550.467712 920.693787 484.801483 550.759155 610.912537 334.528625 849.986938 816.627930 885.433167 441.214600 841.734619 812.165466 681.771973 487.984985 1093.414551 227.555557 1007.148132 630.535767 797.229126 804.006165 598.265686 868.434082 407.035980 742.071350 861.958557 699.182800 813.435486 782.243591 774.671631 651.869690 751.722534 826.357422 800.911499 909.426575 824.393005 911.817688 889.217102 800.295410 
conv_116_param_0 935.597107 809.007751 1040.904419 820.492126 907.839417 1137.653320 692.204895 381.932465 841.054138 810.899475 1211.862549 566.349487 741.014221 601.725830 960.650024 826.357422 590.121399 732.149170 399.840118 1089.407349 1021.988220 1075.332275 816.627930 792.975586 927.258484 1069.253906 906.257812 736.815857 988.018982 1054.087158 945.803650 1109.151367 914.221436 770.084412 679.545410 1286.012329 1006.174072 545.274658 922.326233 289.156189 1112.710205 562.065918 780.483093 1242.991577 996.536377 723.493713 913.418762 1254.230225 895.339050 1049.832520 1148.326660 709.675293 1012.046692 1197.909058 1024.504150 1211.862549 944.944580 879.445496 744.194580 885.433167 1133.315918 1438.982056 920.693787 687.175720 1119.896606 873.538208 852.075378 831.641907 1066.513550 996.536377 417.489563 1078.677002 962.427368 899.208313 794.186279 1016.496338 749.556213 1220.391846 928.914307 912.617554 978.724365 1021.988220 590.791626 1115.095337 1162.440186 1028.555664 634.767517 944.944580 167.803864 881.681335 1054.621338 952.732605 318.160248 844.467529 908.632324 601.725830 1071.456177 1073.667725 821.139709 899.986145 1238.552368 796.009155 599.644958 677.774597 752.810425 555.167542 799.680237 1367.127441 962.427368 707.744202 931.409119 387.335815 163.274323 781.655884 986.145996 877.961182 1388.104126 894.569214 1002.296753 669.918884 478.557495 1001.332031 736.815857 841.054138 794.792969 1014.019470 1174.911377 716.024780 
conv_117_param_0 1616.758301 3569.070312 1464.298340 1027.539795 2145.121582 1926.637085 1199.981567 1433.035767 2430.803711 1474.676147 2341.888672 2061.186768 2056.094971 1903.721924 1006.174072 2295.386719 3236.031006 1417.416870 1261.071533 1907.211792 1655.344482 2418.091797 1818.853149 1206.242310 2348.496582 1836.511963 1338.975586 1110.335083 1038.307373 657.223022 1505.620850 1521.029297 1075.332275 2122.149902 1266.444336 1147.693359 1912.470581 2376.662598 3427.953857 1844.652466 927.258484 2201.870850 1944.642944 1608.012329 1062.700684 1663.283813 2125.401367 1063.243774 1290.798950 2074.544434 1611.749023 1397.426514 1040.384033 1368.026245 1154.058838 1337.254517 3147.909180 1317.775757 1820.444458 1178.237793 1051.423950 1399.306030 1223.261597 1711.157837 1332.117798 1683.469238 2166.338379 1113.901489 2334.007812 3535.714600 1886.462402 1152.780029 1551.653931 1193.785400 4310.239258 890.739746 1648.786011 1634.538940 1979.798340 929.744385 1701.363892 2085.982910 784.012085 2332.699463 1693.057739 2761.470459 333.242798 2752.338623 2697.042236 1941.014893 2068.357910 2130.842773 1170.944336 1373.444214 1050.362427 1367.127441 1498.033081 1140.146851 658.887878 3313.324951 2418.091797 1361.759155 3712.342529 854.174072 1673.988770 2051.028076 1859.488770 2079.728027 1545.890015 1991.165527 2069.386475 1871.194214 988.958191 1953.772827 1412.605591 2604.215332 1469.468872 2167.466553 1508.896362 1099.190674 2376.662598 1008.124023 1259.544800 707.744202 506.516052 1250.461548 1274.980347 1455.082520 1254.986694 1896.780273 2429.384766 3000.386475 1687.565308 1514.387207 1228.316406 1486.262817 2418.091797 4429.521973 1387.178711 2763.304199 684.913757 2493.430908 2150.664551 1772.374756 1258.782837 2000.738403 3114.922119 2556.226074 2137.409424 999.408264 1809.363525 2110.312256 1553.971680 987.081604 4305.779785 2289.073730 1898.510986 1268.760986 3037.617432 2133.027100 2240.999512 889.217102 4756.041016 2811.848633 3039.836426 1877.949463 1648.786011 2276.551514 1605.530884 2528.272217 3078.059082 1258.782837 2117.830078 1864.487427 1659.304565 1822.038574 2186.829102 1428.118042 1249.710571 1271.863037 1695.817383 1278.898560 2741.459717 1016.000000 1716.805298 1352.026001 1445.981934 1287.604004 1077.559814 1719.642944 3538.721191 1763.362671 1171.603638 976.886414 1694.436523 1471.547363 1820.444458 3532.713135 1405.924316 1732.529541 1830.051025 2139.607178 1341.565430 976.886414 1629.418945 1369.827515 1419.350586 1001.332031 944.087097 1081.480225 1227.591797 2702.296143 1751.488159 2205.371582 1535.622192 1268.760986 2459.536621 2506.949463 1733.973389 1778.434204 1854.516968 1256.502441 1311.132935 1582.333130 1928.422607 1243.734619 1277.328369 893.800659 1240.768066 1107.380493 1659.304565 1030.593384 1519.918213 599.299561 2018.203735 1729.649170 1977.916382 1630.695923 1132.698975 1061.074951 1511.087891 3391.634766 1382.570068 1862.818237 1709.751831 821.788330 1456.100830 1278.898560 2549.960693 1097.451416 1977.916382 821.788330 1719.642944 1017.988281 2183.387207 1609.255981 
conv_118_param_0 194.537018 171.003281 142.518356 136.964722 199.766510 148.456619 182.908585 150.605667 79.735130 127.685814 164.721970 242.400742 199.460129 190.407028 173.166443 208.076797 164.513596 177.056503 234.532013 178.147949 157.825241 161.851898 166.728210 108.103073 180.246704 179.872757 119.529411 264.863556 155.281189 239.719818 203.836990 193.379929 157.347855 163.788406 149.997696 170.778732 194.974518 140.973434 161.650711 189.989777 215.489639 183.943420 188.066528 232.852280 194.828461 272.780273 197.791641 178.270050 145.386246 171.115784 133.382568 181.125351 173.513016 132.229797 139.386917 173.628845 153.539551 142.674713 165.983414 193.812225 184.727280 152.817856 241.052826 129.788422 116.949638 166.835144 159.470261 197.042419 109.837837 201.156998 241.500458 133.725449 179.006195 208.912445 176.575699 206.261703 121.653885 214.247116 162.763458 185.782852 150.955307 217.108521 151.394638 144.177383 254.871140 149.480453 182.908585 209.248596 194.537018 168.020676 156.401688 201.312698 149.911240 137.981964 208.912445 146.450455 158.209244 160.157639 177.297882 123.737396 162.559998 199.307281 183.166199 154.634964 207.082809 291.587433 161.751251 53.872410 220.420334 153.902954 214.777863 156.213821 183.813431 180.121887 223.066895 165.455475 128.379074 158.788773 175.503372 141.356522 128.252472 199.460129 144.017715 154.911255 157.825241 225.777771 131.961441 229.361557 216.746674 201.937881 167.912201 222.875748 151.218597 173.051224 412.850800 126.505836 107.834160 245.142319 289.156189 157.157700 247.710480 206.098251 250.574188 154.085312 132.095474 68.808464 203.517990 204.638870 264.190948 312.240082 144.177383 253.258026 227.356644 392.894257 155.839432 292.406982 44.173912 167.156815 193.667908 421.549438 169.554108 151.925232 167.371948 294.392761 295.060699 255.874084 273.641235 220.607300 307.623901 242.853409 123.737396 269.111237 102.158684 266.902008 129.079895 226.367279 99.730064 347.489655 195.120773 171.115784 262.723236 331.966827 67.768631 332.816376 229.159470 258.930817 183.037292 293.231110 263.121887 66.114899 205.123032 274.652588 216.206146 294.893433 223.642303 228.555359 139.461655 88.769966 206.261703 232.021408 278.028870 224.220688 256.884949 243.535583 264.863556 89.936378 223.066895 163.788406 128.824173 198.546570 272.637329 122.340546 207.744415 262.988892 194.974518 176.936050 197.341431 111.152138 220.420334 186.448746 205.772156 266.082855 194.537018 269.669250 186.850571 123.737396 234.320724 288.035431 118.548767 266.902008 126.260193 265.946838 272.494507 247.710480 229.563995 213.368332 235.807800 291.914703 174.678314 283.020660 263.388367 373.164978 245.605286 187.254135 236.021774 192.521103 258.544739 162.763458 230.173447 268.833069 185.782852 207.910477 345.413025 194.246460 308.902618 217.471573 
conv_119_param_0 681.325500 553.101562 574.163330 790.565369 307.988159 629.772400 643.006165 677.333313 401.692657 536.004150 813.435486 695.909058 649.428223 707.263062 444.608551 356.540100 412.850800 3735.669678 646.201233 622.239258 474.195068 577.991089 451.947876 482.105652 681.325500 618.907776 672.952148 835.649780 598.609924 510.994110 314.695709 630.535767 386.185608 433.854889 462.392883 746.329956 379.979553 531.079102 528.381897 638.272400 487.527649 562.369751 588.452515 526.510132 683.114929 630.535767 328.404053 287.081665 403.875763 247.710480 665.207153 469.911469 359.745514 520.712708 588.452515 428.494232 448.055115 588.785522 586.793030 665.632751 428.847473 614.520996 380.257324 549.885864 424.300171 321.304504 2075.579102 456.709381 617.805237 378.596802 394.982544 436.402679 371.300507 464.457153 646.201233 449.604156 372.097290 530.808167 455.509644 274.073761 413.178711 477.678619 1002.296753 559.346252 555.167542 382.494110 388.202972 449.993073 342.006561 312.052795 418.497192 376.677765 1103.270386 510.492645 338.006500 472.043549 414.495605 735.773682 705.823608 417.824890 446.900330 322.699738 843.782654 403.875763 632.068054 373.432892 1422.261108 668.627258 346.332886 489.362183 413.836121 387.047607 428.141571 450.772949 754.995667 1034.693237 485.706818 794.792969 681.771973 455.111115 464.872192 589.786865 424.993469 426.736664 500.666016 338.887299 473.763214 445.751495 988.958191 784.012085 586.793030 1173.586060 1029.064331 902.327820 1733.973389 886.942871 1399.306030 825.046814 495.893219 1159.202271 654.741333 810.267883 968.700195 660.142151 689.909790 1096.872925 1204.148193 950.122375 826.357422 1077.559814 795.400635 711.130554 398114.062500 496.840485 1046.663940 1264.136108 557.249084 653.918274 763.864929 1153.419067 1168.314453 675.574036 491.210571 821.788330 712.591797 1025.514038 1180.242798 650.646667 901.545898 710.159729 348.888000 877.961182 522.806030 434.217041 523.595398 866.264771 394.084839 437.503784 661.821899 737.861023 758.850464 400.147705 926.432739 653.507507 308.170624 496.840485 364.535400 741.542419 446.516724 751.722534 1137.031738 753.355530 372.363647 475.930481 1623.063965 620.754150 1034.693237 719.491028 1333.825684 1864.487427 792.371643 306.897949 911.817688 1611.749023 557.249084 1223.261597 400.455750 387.335815 446.900330 459.533569 1371.633545 652.687561 1792.220459 1864.487427 251.300476 446.900330 239.940964 591.799744 10088.572266 385.899109 615.247803 443.471436 503.087036 1605.530884 477.240356 1255.744141 499.224579 394.383636 512.504456 414.165619 451.555542 816.627930 991.786438 588.119812 462.392883 1430.081055 311.678864 270.510651 2987.463135 161.550308 2375.305908 1514.387207 424.993469 1871.194214 1204.148193 645.800110 336.041351 532.983582 423.264435 407.993713 428.847473 1178.237793 2768.819580 1010.081543 1157.268066 240.162506 
convdw_180_param_0 248.895691 178.514755 93.224373 155.839432 296.743866 92.101982 306.716980 126.260193 361.746857 305.456268 368.407928 105.644188 132.364380 421.549438 178.392319 205.447083 380.257324 170.554749 129.401001 214.423737 149.652481 105.816109 134.764771 196.744324 162.154617 245.837433 430.979279 201.156998 257.138916 483.449829 112.888885 189.851089 229.969940 259.576843 397.396484 489.362183 180.371704 134.904572 212.150085 133.245895 269.809143 246.770401 58.161003 161.952682 191.528717 101.441498 164.409607 873.538208 356.784637 162.053589 84.556564 140.440598 124.091606 93.157593 169.997391 221.546844 126.260193 152.191925 211.116882 189.436264 172.821259 301.910614 264.594086 142.831406 299.822479 377.497833 192.094528 266.628387 221.546844 184.727280 152.191925 93.024323 119.200737 416.153595 113.977211 93.492455 391.121796 97.341316 571.639587 394.682861 522.281128 469.487366 44.173912 487.984985 70.832245 53.872410 541.021301 534.626953 1445.981934 351.718719 60.656715 674.260559 376.950714 1007.148132 387.335815 173.513016 566.041321 130.504761 421.208099 399.226410 720.986816 508.745239 324.714111 352.672546 88.830605 656.393677 591.463318 60.207409 509.492645 355.322418 90.625786 272.351837 89.318680 85.389366 769.514771 131.560944 88.108398 984.280029 233.899277 371.831299 292.078613 378.321442 352.911804 75.042122 47.776634 105.046852 238.839310 344.042328 
conv_120_param_0 688.996033 548.147522 574.480408 687.175720 336.693848 950.122375 814.709473 1052.487549 1346.775391 802.146484 659.723511 572.268433 751.722534 750.096619 1092.840332 855.578918 432.412292 463.216370 730.094055 568.515869 685.364929 500.666016 649.023071 560.249878 741.014221 1090.549316 644.599731 704.867188 427.437958 659.723511 547.282471 400.764252 919.879761 1141.397705 707.263062 984.280029 923.964478 1085.429321 1083.733276 381.093048 645.800110 602.771729 729.582031 843.782654 999.408264 732.149170 796.009155 505.531586 991.786438 1078.677002 604.874390 779.313843 695.443848 829.652283 434.579773 544.133911 827.014282 262.325775 938.128052 894.569214 949.255493 405.133942 729.582031 972.321472 908.632324 745.260742 1157.268066 720.986816 918.255981 589.786865 919.879761 860.532654 653.097290 729.070801 519.412903 574.163330 480.325012 1665.947144 911.019287 642.609009 919.879761 306.716980 844.467529 614.520996 597.578430 953.605896 900.765381 711.130554 627.493347 586.131836 665.632751 713.080200 1118.091309 556.652771 756.093018 767.811096 775.248901 886.942871 906.257812 663.087341 533.256775 796.618713 206.918060 722.990967 646.201233 781.655884 1003.263245 785.788513 997.491821 888.457703 995.582764 896.882751 605.226318 797.229126 791.166565 614.158203 483.449829 886.187378 877.961182 1048.245850 926.432739 1248.211182 962.427368 846.528870 811.531982 974.142334 877.961182 823.740295 
conv_121_param_0 1154.699219 1298.856445 1301.293335 849.986938 833.641052 976.886414 1350.271240 1067.060547 1452.036255 836.321533 937.282898 895.339050 1352.026001 782.243591 1031.615234 1334.681152 1035.723267 751.722534 1161.142822 584.157227 989.899170 968.700195 960.650024 1063.787354 1002.296753 804.627991 1120.499756 616.341248 845.840637 945.803650 1002.296753 1154.058838 528.381897 803.385315 1165.043701 1035.723267 1100.935425 777.566528 1302.922974 1127.176636 955.357239 1192.417236 716.517883 1274.199585 1262.601929 1112.115479 1256.502441 918.255981 1237.079712 1098.030640 1191.052124 1088.837280 1070.353882 902.327820 1106.791504 1116.890991 1090.549316 855.578918 1305.375122 717.011719 1123.524780 1140.771973 1313.616211 758.850464 1052.487549 347.489655 1001.332031 1179.573730 1129.624268 1013.032104 1064.876099 1507.802856 624.855286 994.630981 903.111084 1165.043701 988.958191 916.637878 718.001404 887.699646 900.765381 1189.010254 930.576050 821.788330 950.990845 1080.357178 1364.437988 1218.248291 1040.904419 1544.742432 938.974731 1147.060669 1093.989502 1423.233887 963.318542 962.427368 1525.489746 1316.108765 761.628113 1093.414551 1108.560425 843.098877 1290.798950 945.803650 1017.490479 1454.065674 932.243713 1407.826782 784.603333 1174.911377 1052.487549 1436.994507 1083.169189 1094.564941 868.434082 1033.665161 1511.087891 1219.676392 987.081604 1080.918457 864.824585 1011.063171 894.569214 1219.676392 1186.298706 1098.030640 1232.682495 1191.052124 757.193604 1234.877197 1082.605591 1091.121094 994.630981 981.494324 729.070801 1044.562256 775.826965 1164.391724 747.939636 728.560242 883.178284 1031.615234 1223.261597 1272.640991 1351.148071 722.990967 817.911926 864.106323 1264.136108 914.221436 1082.605591 1016.496338 1016.993164 792.371643 1231.952637 790.565369 1016.000000 1085.429321 947.526428 1239.290039 975.969971 839.019348 1018.985291 1017.988281 764.426147 950.122375 718.001404 1122.312866 1378.905273 1051.423950 990.841919 966.899658 878.702698 1256.502441 951.860962 675.135620 1776.915405 854.174072 1062.700684 1359.090820 1056.227417 1161.142822 861.958557 860.532654 1161.791138 1209.045898 1078.118164 625.230774 1116.890991 753.355530 1086.562866 864.106323 866.986694 1050.892944 972.321472 1274.980347 1479.920288 1407.826782 739.960144 841.054138 1088.837280 933.079834 1279.685059 934.756531 1156.624756 807.124878 918.255981 1199.289917 999.408264 1168.970825 834.309570 1020.985291 887.699646 1115.693237 1271.086182 1085.995850 1136.410645 986.145996 1408.779907 1003.263245 864.824585 767.811096 597.578430 825.046814 866.986694 1085.995850 782.832214 1465.329590 836.994385 909.426575 1373.444214 1127.176636 906.257812 835.649780 726.525146 911.817688 1092.266724 1048.245850 1090.549316 1278.113037 526.243774 1052.487549 1298.046143 1020.985291 864.824585 1037.789551 1130.852173 1069.253906 1256.502441 1460.188110 522.543457 533.530273 835.649780 972.321472 1294.815186 1038.825806 
conv_122_param_0 821.788330 874.272278 988.018982 602.074097 788.767273 956.235291 990.841919 693.127258 955.357239 699.653015 941.523987 912.617554 854.875916 971.413635 667.340576 1168.970825 897.656616 1196.531372 1232.682495 854.875916 1154.058838 1000.369202 561.459229 1234.144775 1227.591797 842.416199 715.040527 744.727295 541.866638 1080.357178 894.569214 1033.151978 764.988220 580.571411 587.455688 719.988953 1144.536865 794.792969 773.519714 938.128052 805.874512 1231.952637 741.014221 596.550476 518.636108 945.803650 1176.239624 620.014282 236.236145 1047.718018 950.122375 909.426575 792.975586 1071.456177 381.652252 1084.863403 1442.973633 990.841919 940.672668 816.627930 825.046814 700.123840 814.709473 904.681763 658.054382 706.782593 993.680969 705.345093 738.384644 908.632324 702.962158 1277.328369 1102.685791 854.174072 551.635193 791.768616 566.349487 807.124878 1059.454224 1089.407349 688.084656 1028.555664 1106.203125 1660.628906 1113.305542 582.848206 404.818665 867.709778 718.497253 684.013123 1055.691528 2351.150391 336.693848 514.277832 805.874512 946.664246 955.357239 919.879761 1333.825684 550.759155 662.664978 912.617554 859.821472 1029.064331 734.215942 1159.848389 1024.000000 1134.551758 794.186279 1352.905029 915.025513 602.422668 747.939636 1091.693604 1294.815186 1147.060669 791.166565 917.446228 943.231201 1008.124023 1314.446045 1118.692505 707.744202 1324.486328 638.272400 889.217102 1062.158203 1195.156860 
conv_123_param_0 931.409119 2545.281982 2000.738403 2182.242188 1486.262817 3155.069092 1623.063965 1167.003906 2425.137451 2776.208252 2681.402100 1570.390991 1323.643799 2323.582275 842.416199 1846.289307 2274.063477 1094.564941 1994.983643 1161.142822 1543.596436 2064.253906 1665.947144 3864.007324 2032.992676 1395.552002 1729.649170 2572.024658 2261.704346 1206.942017 2200.706543 1686.197754 2549.960693 1422.261108 3925.977295 1217.535400 1682.108276 1329.564209 4634.227051 3271.647705 2030.017578 1654.028564 1247.462891 1792.220459 2520.615479 2164.085205 3068.979248 1245.968872 1397.426514 957.114990 1834.892456 2902.047363 1690.307007 2557.797119 2671.075684 1766.356567 2096.491699 1480.973633 975.969971 2887.949951 1511.087891 3663.323975 2198.381348 1609.255981 2198.381348 2340.571533 1346.775391 1831.661987 1542.452148 2060.166260 1647.480591 1629.418945 1080.918457 1162.440186 2046.992676 1516.594727 1427.138550 1465.329590 2399.963135 1953.772827 2447.962402 1806.222168 1504.532227 1891.607300 2305.560059 1977.916382 2592.857422 2419.497559 1644.875854 2922.427002 1735.419556 1856.171265 1209.045898 1478.868530 1932.003662 2173.125732 3188.916504 1849.571533 3959.596680 1496.955444 1504.532227 2741.459717 1822.038574 4218.485352 1881.345337 1732.529541 2669.362305 1389.030762 2386.201904 2168.596191 2811.848633 1005.201904 1206.942017 1222.542847 1152.141724 1928.422607 1479.920288 1424.208130 1302.922974 2974.650391 1420.319458 2511.488281 2080.768066 1686.197754 1733.973389 4606.016602 1290.798950 1893.328491 2201.870850 2978.909180 1541.309570 1664.614380 2243.415527 3098.686523 1787.601318 3644.077148 1230.495605 1469.468872 783.421692 2032.000000 1806.222168 1660.628906 2628.892090 2472.689209 1492.659912 1996.898315 1340.701050 1171.603638 1972.291992 1391.818115 3462.176270 3107.943359 2633.883545 1715.389893 1523.256226 2620.614502 2076.614746 1603.057007 2405.512207 1962.988647 1390.887695 1594.458252 1888.174194 2058.128662 2452.290039 1836.511963 2549.960693 3839.055420 1688.935059 4178.249023 2363.166504 1502.359619 2523.672607 3864.007324 1373.444214 1874.565796 1642.279419 1809.363525 1493.731567 2643.923828 2054.065186 1781.479492 923.964478 1113.901489 1379.819580 1165.043701 1152.141724 1644.875854 2655.734619 2106.040527 1823.635376 1147.693359 1905.465210 1080.357178 1225.422852 2251.913330 1650.093628 2395.818115 1100.935425 2192.590088 3337.238281 1392.749634 1823.635376 1750.015137 1363.543945 1996.898315 1417.416870 4013.052979 2591.242920 1334.681152 2331.392822 2260.475830 1682.108276 1852.865479 2568.849365 1465.329590 1784.535156 3004.719238 1577.534546 1385.331543 2326.179932 2056.094971 2280.293701 4064.000000 1694.436523 3103.307861 2135.216064 1637.110962 2802.381104 1752.963745 1081.480225 1638.400024 3358.786133 2020.163086 1562.138184 2363.166504 1817.264648 1876.256104 1733.973389 1409.734375 3310.688965 3514.810791 1347.647705 2107.106934 1202.061279 2247.049561 1783.005981 2335.317627 1748.544556 1412.605591 2932.724365 1847.928955 1276.544800 1667.282104 2010.403809 1352.905029 
conv_124_param_0 804.627991 316.034027 361.244446 683.563721 276.992554 268.833069 553.690247 730.606750 318.745087 364.025208 386.472504 635.155090 483.449829 1205.543457 279.522827 271.924713 753.901428 602.771729 418.160767 476.802948 727.541260 332.603577 505.040771 549.595337 375.861267 381.932465 327.989899 480.768951 449.215881 1084.298096 327.576813 396.790222 866.986694 563.283142 756.093018 560.853882 393.488647 721.987488 382.494110 422.920319 332.603577 604.874390 531.350342 594.845032 293.727844 434.943146 417.154785 424.300171 272.494507 232.436096 352.433594 326.959137 329.652710 314.886200 378.872528 442.340149 613.072510 480.768951 493.540802 615.247803 414.495605 335.391357 237.965240 879.445496 394.682861 327.989899 442.716583 430.979279 1028.555664 427.789459 599.644958 254.124084 240.384476 508.248169 714.549438 345.183807 330.490479 321.106171 553.985107 476.802948 224.607941 371.565704 851.378052 554.871460 306.536255 1068.156006 253.258026 376.677765 684.913757 250.574188 475.061188 291.914703 479.439636 470.761993 861.958557 328.196838 358.258942 1122.312866 478.557495 351.006744 566.041321 534.626953 300.862915 856.283142 323.100616 442.716583 447.284607 1016.000000 348.420624 270.510651 492.606049 456.308777 449.993073 393.488647 309.086151 476.802948 244.911484 454.713287 363.009064 478.998169 549.885864 311.119629 360.743408 713.080200 249.612289 320.512634 453.128906 1022.993103 
conv_125_param_0 83.978836 95.614456 54.216908 89.862701 99.667191 119.002815 76.491570 114.392792 142.110794 60.464764 84.145790 146.117371 75.535988 96.559692 145.198395 64.849846 81.394875 79.558899 88.981079 125.470352 250.816788 79.608780 78.331894 92.279068 82.025841 97.824348 128.778900 67.325554 82.078865 76.537674 186.045425 62.243137 
conv_126_param_0 44.088890 41.119171 54.967964 69.008698 95.830940 82.291641 75.671036 50.427322 65.654602 57.768879 76.537674 33.788185 45.740635 82.078865 76.399521 76.261864 59.669174 22.013870 80.262955 89.545837 63.329678 60.007561 53.803391 45.641983 42.552280 78.769234 51.076427 43.815044 77.661163 72.392250 61.818890 61.939510 89.482735 74.823807 123.038757 69.008698 62.921703 68.083649 54.496136 89.926346 64.849846 56.084805 79.459328 58.568264 54.872948 56.333630 59.781544 39.021511 51.365696 36.403671 61.046154 74.429077 53.217098 83.208389 30.969755 60.928982 62.121330 70.542221 104.765678 65.384140 64.161697 56.888889 47.132889 72.145454 
conv_127_param_0 486.160736 619.276184 509.243256 487.527649 347.721924 480.325012 605.226318 326.959137 689.909790 535.452393 450.772949 634.767517 578.634033 511.748169 483.899536 570.073425 430.266327 851.378052 553.690247 379.979553 636.709900 362.755920 420.527069 313.180023 598.954529 387.047607 533.256775 522.281128 506.516052 285.192993 668.627258 1072.560791 864.824585 1378.905273 478.117645 455.908844 514.023743 627.115112 307.079102 635.543091 496.840485 904.681763 512.757019 520.712708 407.993713 481.213684 1422.261108 885.433167 1124.739502 628.251221 467.378265 674.260559 366.332397 497.791382 416.153595 415.488831 361.746857 502.115845 1639.691040 717.011719 1069.253906 1779.955566 460.754639 215.668320 581.544983 647.407593 464.042816 414.826141 741.014221 556.652771 828.331238 428.847473 1680.749634 424.646545 1562.138184 434.217041 402.003082 501.631622 1201.367188 633.607788 585.472168 575.115540 562.369751 1558.627686 421.208099 459.533569 886.187378 889.217102 409.277740 352.672546 546.133362 1551.653931 262.325775 611.630798 444.988892 510.492645 472.043549 703.437439 443.471436 1112.710205 407.354736 1893.328491 113.085220 394.084839 1888.174194 580.895569 1462.240356 528.650391 472.472290 326.343781 389.365265 1147.060669 580.895569 502.115845 487.527649 572.898682 474.627747 950.122375 458.723114 371.300507 868.434082 1071.456177 516.575989 502.600952 617.072388 640.630554 907.047974 650.646667 
conv_128_param_0 216.927444 173.628845 652.278381 348.420624 629.391418 641.816162 1093.414551 552.807678 369.980072 370.507111 312.427643 292.736084 455.111115 861.245056 181.885315 698.244324 869.886292 854.174072 894.569214 380.814056 681.325500 579.924194 532.983582 441.589142 558.145935 273.497375 584.157227 201.156998 867.709778 539.059082 184.858566 270.370056 1124.739502 140.973434 272.923401 574.797791 291.260925 479.881927 322.499695 439.722748 273.929443 229.969940 270.933319 972.321472 382.213074 209.585815 279.823547 385.042206 783.421692 394.383636 908.632324 275.963928 174.210312 381.932465 204.961380 402.313995 284.568939 286.607178 248.895691 354.113007 327.164795 239.499084 277.140106 568.826660 
conv_129_param_0 39.556385 37.456047 49.951218 43.425446 61.579048 45.872833 39.238567 48.987656 29.556797 36.093235 52.253498 39.238567 64.916153 48.501144 25.558777 76.307693 
conv_130_param_0 45.348572 33.627117 42.268974 47.097923 31.000000 75.133728 30.670532 30.493755 55.838169 46.039158 58.406624 69.272232 44.836159 44.963173 62.580582 53.803391 46.139534 60.580154 37.589108 49.177383 37.367863 28.444445 38.384521 31.321165 82.291641 56.035305 35.349667 89.482735 83.481918 54.402740 58.514286 87.268730 
conv_131_param_0 195.708054 845.840637 205.447083 217.471573 119.529411 246.536499 224.802078 604.171875 633.607788 184.073608 930.576050 312.991577 1745.610718 185.121704 139.461655 129.272369 145.957352 109.375946 129.659027 251.787033 167.695679 136.104660 182.780045 278.923309 358.505859 508.994141 176.097488 278.773834 171.341232 405.765991 292.406982 271.357330 134.001038 218.936020 197.341431 210.604050 399.226410 151.571091 229.563995 167.049454 419.848267 400.455750 393.191223 225.191345 147.363174 348.187408 376.133057 159.960632 318.549896 173.281815 440.467407 258.287994 154.634964 187.389053 147.697906 169.443649 407.354736 401.073242 444.228851 176.455902 144.497772 333.029449 220.607300 601.725830 
conv_132_param_0 343.587860 269.389954 509.992157 344.042328 516.832581 546.707275 481.213684 758.850464 375.861267 355.808472 430.622528 431.336639 520.452209 730.606750 463.629242 743.131409 435.671692 974.142334 275.525421 497.791382 359.496887 262.855988 524.916260 667.340576 360.993744 376.950714 417.824890 398.920258 483.449829 418.834137 388.783264 338.887299 412.523407 637.099792 844.467529 360.743408 562.673889 420.867310 430.979279 757.193604 980.569275 732.664795 693.127258 375.048309 346.102448 405.133942 562.978333 539.618286 930.576050 513.516296 507.504395 420.867310 598.265686 481.659271 684.463135 1239.290039 870.614197 399.840118 344.954895 580.247620 403.875763 603.471008 304.383850 552.514099 
conv_133_param_0 57.979908 136.240341 52.124794 67.865311 84.090065 479.607178 109.935928 139.075577 110.993004 81.447083 160.525909 139.764450 112.368141 203.487183 85.390717 67.361275 101.015114 98.507370 90.957024 72.849113 88.055481 253.571640 49.330227 121.741135 98.968040 67.112053 72.723938 97.225113 89.482735 322.478729 105.725227 103.484924 161.959183 117.461609 87.630089 128.648422 93.159210 254.206207 142.429611 146.370026 92.413391 150.623962 114.289825 60.349812 85.968857 46.785557 146.285721 98.050964 87.994453 113.574242 132.750656 135.875870 90.503204 103.484924 141.006104 101.662132 82.882507 142.990997 86.554871 36.847359 91.812004 121.160309 174.058945 109.935928 
convdw_181_param_0 420.527069 67.945663 250.092300 177.056503 112.207077 341.333344 214.070786 95.203514 91.454292 367.626862 115.290779 155.559814 6.929241 295.060699 222.304276 243.992493 319.332092 321.304504 71.889442 301.385864 108.013290 228.555359 120.638222 86.410629 151.042969 66.418793 354.595764 176.097488 199.002289 184.073608 182.780045 360.493408 144.497772 134.070099 162.661667 128.569458 234.320724 325.323334 348.187408 165.983414 155.932861 299.995392 87.751686 202.251938 207.910477 277.140106 248.183212 122.340546 155.559814 233.479355 191.247055 355.079865 90.562675 122.686790 209.248596 264.325195 256.631470 102.238991 109.192276 118.333031 205.123032 169.886353 176.575699 167.912201 
conv_134_param_0 50.267616 31.091087 34.768894 48.169956 35.687466 50.507557 27.603477 13.193683 56.736370 24.456087 40.284264 48.390244 54.920414 54.967964 19.099880 33.716412 25.173672 75.851852 47.771255 33.049454 19.704531 33.432331 22.609686 47.167904 39.360199 70.857140 55.063313 65.451546 73.524033 19.927181 25.213661 76.307693 51.158745 46.648052 59.003719 48.316589 43.218517 37.880669 56.134396 14.133571 18.629108 34.096672 33.734325 34.243797 42.580818 41.225975 65.149307 28.675699 48.987656 23.289803 41.713535 35.767887 29.096243 78.331894 67.540428 61.879143 69.272232 52.730896 37.589108 25.724474 48.912174 19.215496 45.806637 34.336399 
conv_135_param_0 252.520386 251.300476 401.073242 200.073853 208.577393 218.201340 166.835144 199.307281 240.606842 218.201340 238.401474 191.247055 268.555511 194.828461 225.386475 188.612045 389.365265 241.052826 265.268738 126.876099 254.497070 182.267700 206.589355 196.893265 188.885986 359.745514 268.833069 346.794678 243.535583 254.248291 337.567810 243.992493 244.221603 242.175049 173.281815 132.499237 254.124084 152.191925 316.418488 204.477982 367.367218 226.564453 179.252930 266.219025 175.030960 259.576843 159.080124 301.385864 183.166199 173.051224 208.243393 223.258362 217.108521 217.471573 122.340546 188.202606 247.239548 245.605286 311.305817 237.313873 186.181824 225.386475 269.669250 159.960632 
conv_136_param_0 160.850952 223.258362 349.122162 190.826126 330.700562 163.376877 215.133163 326.753754 297.933563 312.240082 160.454041 220.233704 320.512634 244.221603 475.061188 233.689133 149.052155 179.748444 358.505859 251.787033 530.267090 240.384476 499.224579 238.839310 387.335815 317.383759 425.689026 487.527649 284.257935 256.884949 174.795700 313.180023 189.712616 362.755920 179.376556 304.740479 184.073608 501.631622 220.982162 373.701141 191.247055 365.560089 290.610046 247.710480 205.447083 313.936035 244.681091 175.503372 272.351837 163.994949 227.356644 294.726349 145.712051 457.512756 315.459076 175.740540 257.903809 367.107971 196.595612 164.409607 268.278503 330.280640 308.719299 198.395111 244.911484 267.313477 714.059021 633.607788 301.211334 426.736664 296.236908 319.921265 352.911804 188.338882 281.794159 225.386475 429.555725 215.668320 289.800568 308.536194 400.455750 223.066895 367.107971 222.494446 302.085938 354.113007 409.277740 224.607941 594.505127 449.993073 367.367218 410.569855 318.940521 299.649780 181.251572 301.037048 311.119629 225.777771 365.303375 254.000000 266.355347 1167.003906 230.786163 252.275467 304.205841 237.313873 324.714111 197.641342 269.250519 284.102661 380.814056 262.855988 219.675674 285.349426 304.028046 243.763824 298.275238 334.959442 311.678864 269.389954 365.303375 331.332489 356.295898 332.816376 230.173447 375.048309 233.269958 324.511536 
conv_137_param_0 233.689133 371.300507 367.626862 260.486725 262.723236 207.082809 173.397339 184.990036 202.094788 231.196442 257.138916 310.933655 351.718719 376.677765 406.082733 446.516724 280.881195 291.750977 284.880615 341.557465 275.671448 235.807800 225.973938 210.945663 206.753571 212.844513 213.018845 203.517990 227.356644 246.770401 252.520386 220.233704 264.056854 376.950714 434.217041 274.652588 256.504944 242.175049 221.735718 241.724915 268.972076 283.174744 300.341797 333.456421 357.766174 395.282684 416.820526 369.717133 362.250702 329.443939 368.669037 280.729614 300.168488 230.991119 193.236252 209.924133 219.861374 215.489639 219.305222 210.263535 183.166199 174.678314 181.125351 190.686218 
convdw_182_param_0 79.297562 140.062469 202.094788 227.954422 128.126114 162.661667 222.494446 147.949936 210.945663 129.529877 204.638870 270.510651 128.189255 253.011673 121.996246 144.658508 182.395508 179.129471 188.338882 89.380066 241.949768 207.413071 151.394638 125.287094 266.628387 63.376217 152.728134 93.897476 60.826942 153.994080 94.718132 137.835724 86.988632 115.701065 100.656349 91.841805 97.560387 87.280540 66.014214 112.986969 224.996536 148.456619 139.088776 129.788422 133.588089 108.826775 147.530350 201.624802 132.229797 67.312630 159.372543 102.078491 84.611580 187.659454 94.374458 198.395111 232.436096 109.192276 93.762077 108.463722 125.166504 76.140518 177.177109 243.992493 
conv_138_param_0 43.514736 96.193939 62.549755 54.589855 37.522457 42.724091 27.507799 73.396530 58.785187 58.948933 50.831066 48.353390 61.519379 45.773613 82.936646 39.433540 72.022690 83.208389 37.678337 51.574329 50.749802 41.795918 35.970539 55.691227 46.206696 64.032272 55.303135 48.133434 25.724474 46.139534 49.716522 41.549740 
conv_139_param_0 534.901794 437.136139 238.839310 295.228149 360.243774 454.316162 341.333344 452.340881 457.110718 297.422516 351.006744 312.240082 268.278503 243.307770 363.516418 288.514709 262.855988 395.282684 312.615387 309.453888 319.332092 293.893799 255.497055 317.190247 181.758209 493.072998 251.057922 263.922882 356.540100 346.332886 375.048309 425.689026 383.905548 338.887299 270.792297 179.624313 298.789215 177.177109 402.937256 651.053833 305.097961 231.608185 398.309357 275.817596 301.385864 246.536499 287.398895 480.325012 333.884460 624.105591 185.121704 365.047028 276.110413 204.156982 409.922760 247.710480 149.997696 406.717743 299.477264 414.495605 401.073242 321.503082 227.754822 295.060699 
conv_140_param_0 157.734161 42.240852 24.195122 41.823452 27.748251 41.119171 36.216770 86.085426 43.395763 33.932655 36.740742 63.710987 45.316204 45.972485 38.268837 36.134319 28.727602 27.845613 23.019579 34.373577 43.042713 61.519379 33.362061 36.258137 34.541893 45.122955 34.941113 58.032906 41.387222 46.375458 42.724091 37.389870 49.177383 66.549263 43.042713 75.942581 49.599998 30.406130 38.830582 44.709858 58.514286 49.561279 51.035370 51.407288 40.233208 28.393560 32.675243 52.469421 30.232382 29.016453 49.445484 47.987907 34.170074 37.105785 50.347343 28.598198 40.131477 33.556026 40.880875 37.971291 55.642418 41.012920 56.084805 21.937803 
conv_141_param_0 265.133545 
conv_142_param_0 210.433655 628.630798 239.940964 347.026031 201.001541 668.197815 246.070007 736.294434 254.248291 193.092804 140.213470 542.714661 357.520264 255.874084 1363.543945 557.846619 176.815765 134.904572 177.056503 719.988953 457.512756 234.320724 274.652588 305.635712 265.404083 267.450897 226.761993 236.666061 1133.315918 340.662750 193.236252 158.209244 466.958710 300.341797 425.689026 333.670288 1110.335083 490.747162 152.817856 604.522949 369.980072 442.340149 167.371948 355.079865 1062.158203 414.826141 314.315399 241.949768 784.012085 464.457153 376.950714 351.243744 2018.203735 259.966003 625.983154 356.052032 1735.419556 1321.122559 323.301422 270.370056 204.156982 231.402130 247.004745 359.745514 748.477722 241.949768 251.300476 832.973572 313.180023 303.850464 370.243408 292.900909 405.765991 353.391296 362.503143 1463.268677 184.596161 186.181824 752.266113 782.832214 307.623901 586.131836 410.894165 365.303375 435.307098 285.976898 350.533691 298.104309 754.448181 286.291687 423.264435 351.243744 1537.892090 202.566971 988.018982 1993.072754 258.544739 340.885986 1204.148193 924.785767 1174.911377 144.578094 241.276443 190.966232 459.533569 192.521103 593.487732 335.607727 962.427368 424.646545 388.783264 1056.763794 216.566193 990.841919 182.651688 406.082733 441.964325 206.425400 929.744385 330.910950 175.030960 454.316162 188.202606 1053.020264 374.508270 385.327393 415.820953 218.384552 
conv_143_param_0 688.996033 2182.242188 786.382446 960.650024 885.433167 1456.100830 1698.586182 1320.284302 502.115845 672.952148 542.714661 687.629883 800.295410 616.341248 701.540100 1166.349731 1324.486328 561.762390 643.006165 1179.573730 1609.255981 792.371643 1220.391846 718.001404 566.041321 2413.884033 1626.870972 795.400635 1067.060547 444.608551 377.224091 592.136597 537.388428 1793.765503 459.127991 1423.233887 877.961182 1121.103394 761.070984 1269.535034 1094.564941 733.181091 919.879761 501.148376 706.302795 1359.090820 472.043549 747.939636 1610.501587 1245.968872 1726.778442 419.171631 557.547668 1214.692383 894.569214 841.054138 475.061188 1118.692505 827.672241 942.376831 439.722748 775.248901 894.569214 1159.848389 560.853882 830.314453 1216.823364 715.532349 1671.299561 2081.808838 382.494110 512.000000 610.554016 692.665771 1369.827515 476.802948 799.066040 469.064026 1359.979126 670.350525 2399.963135 1331.265503 610.912537 855.578918 676.892639 1178.237793 1450.012573 562.369751 1197.219849 592.811401 923.144653 288.514709 677.333313 1654.028564 804.006165 561.156433 1138.898682 971.413635 591.127258 1477.818237 681.771973 843.098877 481.659271 686.269104 1126.566284 806.499207 864.106323 666.912842 964.211304 767.811096 1400.247681 946.664246 796.618713 748.477722 1815.678833 758.850464 642.609009 578.634033 815.347961 854.875916 1440.975098 1264.904541 756.093018 1695.817383 524.916260 643.802002 1896.780273 610.912537 
conv_144_param_0 122.327553 107.972786 159.617844 95.184410 79.558899 131.581345 92.145142 113.068565 133.870316 98.968040 56.991024 79.409630 104.593079 149.471451 132.335587 122.445518 97.002289 118.337372 85.794594 117.461609 133.028809 112.268791 53.940525 94.265778 107.243240 149.912628 144.290909 59.113594 66.724121 93.159210 93.571114 143.638016 40.933590 111.187393 146.793060 90.957024 90.310097 196.709534 69.310043 123.879021 85.678810 71.859650 131.717850 64.226608 72.063560 137.568802 119.226288 90.310097 66.514404 82.238342 104.164070 119.563087 55.838169 175.502426 100.059891 120.242424 76.769043 128.583298 142.990997 93.022713 111.284836 101.580803 108.619331 79.758797 
convdw_183_param_0 141.587372 99.501144 135.255325 733.181091 116.634979 110.491081 200.073853 53.254711 91.197754 117.371841 127.062042 60.151711 52.144348 186.716446 54.872574 82.517769 168.020676 115.086723 89.812157 80.177559 45.503151 257.903809 100.345680 170.666672 216.386017 86.698669 123.035004 144.981049 106.947365 72.530952 121.653885 110.210167 99.425079 142.753021 113.380997 97.780449 132.028427 60.543762 147.614075 109.745148 114.680779 134.347107 134.486038 54.687973 87.163536 33.057449 118.010887 114.177345 169.223160 52.865040 145.957352 97.341316 60.713352 208.744781 120.526413 214.600662 46.149040 61.055401 170.666672 132.566772 88.048744 271.498962 131.494446 119.310089 134.904572 192.949554 125.893517 247.004745 119.970482 168.565140 107.834160 146.285721 67.243019 116.844566 230.173447 41.896908 91.390022 121.087524 86.930481 80.976341 221.358292 45.695011 78.721550 128.760391 99.349121 244.451126 71.770416 88.108398 60.656715 99.577339 82.049210 64.861847 48.201630 301.560577 69.768242 44.937111 444.608551 107.300331 120.638222 77.640594 59.874771 351.956696 240.829636 214.600662 154.911255 127.498039 43.728313 153.177856 96.047264 80.574966 156.778778 120.974884 191.952774 60.487442 153.177856 150.692932 258.416290 255.748276 61.575756 181.125351 203.199997 74.998848 81.026794 119.859909 72.409798 106.335243 83.956100 72.652512 
conv_145_param_0 45.122955 130.231796 82.990852 70.152489 113.777779 135.730621 98.583855 31.259478 104.506996 108.898796 50.871796 93.227608 75.942581 29.069597 93.709229 43.455166 42.100796 62.457451 25.054459 143.800674 23.137026 28.884439 137.197189 72.433540 96.266869 124.976379 59.557224 45.707703 51.742462 46.854614 126.722557 70.191269 60.928982 131.786194 81.134827 29.556797 44.397202 58.406624 59.003719 92.480698 75.761337 49.063370 47.735340 53.128033 51.158745 31.728136 37.767994 105.637268 123.758286 89.419716 28.342857 106.345062 37.994015 37.566864 69.196732 67.218636 52.774731 71.697350 36.424557 78.965172 20.939314 43.997227 48.987656 34.960354 
conv_146_param_0 378.872528 274.507660 389.949036 375.048309 460.754639 356.784637 530.267090 286.449341 499.224579 282.406067 299.132843 380.535492 428.494232 329.235443 433.854889 242.853409 296.405701 457.110718 300.168488 322.499695 358.505859 423.954346 366.074585 244.221603 275.088318 309.638092 484.350098 453.523987 418.160767 330.071075 329.443939 449.993073 363.262573 448.828308 442.340149 408.313965 518.636108 317.577545 365.560089 353.872101 388.202972 417.489563 302.613159 455.509644 284.102661 382.494110 415.157227 279.072968 336.693848 602.422668 489.822968 286.923340 642.609009 392.894257 421.891327 369.980072 438.240936 477.240356 377.224091 520.973450 367.367218 459.127991 443.093689 210.263535 
conv_147_param_0 345.413025 472.901825 251.057922 278.326385 404.818665 191.106537 296.405701 496.366425 536.004150 465.288025 353.151398 321.701904 418.834137 372.630371 525.711975 434.579773 394.982544 271.640717 513.769897 487.071167 307.623901 483.899536 445.369873 475.495422 402.313995 356.784637 584.485413 463.629242 552.514099 351.481079 176.695648 285.036713 498.745911 415.488831 247.474792 566.657959 311.305817 474.195068 450.772949 429.555725 547.570557 515.807617 307.988159 432.772034 293.396515 290.772491 201.624802 345.413025 675.574036 276.403839 507.504395 349.591400 508.000000 207.413071 376.405212 452.734558 510.994110 427.437958 424.300171 405.133942 427.437958 351.956696 552.514099 273.641235 317.190247 405.765991 437.136139 452.734558 315.076935 488.902252 435.671692 339.994781 484.801483 330.071075 582.848206 743.662598 451.555542 633.993896 530.267090 433.132385 566.966736 368.669037 473.332123 194.391632 321.901001 323.502502 462.392883 347.026031 549.015320 526.243774 517.604004 302.965637 379.979553 608.411682 402.625397 572.898682 412.523407 338.666656 335.824402 511.496552 539.059082 421.891327 655.979797 494.479095 370.507111 540.459229 305.097961 414.826141 341.333344 341.333344 376.133057 403.875763 274.073761 501.148376 442.340149 464.872192 466.121857 549.015320 135.820358 299.304962 366.074585 364.791016 376.405212 432.053162 282.559479 428.141571 457.512756 552.807678 424.300171 326.959137 660.561279 767.811096 595.867126 351.481079 238.401474 247.474792 318.354950 186.850571 429.555725 365.560089 483.449829 162.255768 514.277832 189.851089 435.671692 527.845764 231.196442 160.850952 277.140106 483.899536 163.274323 363.516418 369.192322 262.988892 387.624451 581.220093 423.954346 421.208099 478.557495 288.835083 306.355713 359.745514 184.203964 475.061188 198.092911 388.492920 279.222748 485.253723 322.900055 300.341797 468.641449 215.489639 317.965759 177.177109 394.982544 267.864044 223.066895 339.994781 373.969818 641.025269 554.871460 218.384552 296.913239 248.895691 249.612289 295.731659 268.140198 156.873337 344.726318 193.667908 536.280396 604.171875 407.035980 407.035980 432.772034 445.369873 215.668320 273.497375 211.460159 303.673096 324.511536 217.471573 422.576752 802.765442 359.745514 407.035980 358.012390 418.160767 441.214600 324.511536 430.266327 432.053162 370.771210 575.433655 614.520996 260.356354 519.412903 344.726318 425.340973 227.555557 527.578064 384.473022 434.217041 254.000000 579.924194 347.257690 525.711975 454.713287 380.257324 183.813431 552.807678 403.562439 322.499695 370.243408 271.215851 243.080368 417.154785 275.088318 462.804260 320.908081 434.579773 525.446472 197.641342 333.670288 283.483368 393.488647 470.336334 447.669525 384.757385 362.250702 328.611511 424.646545 430.979279 465.288025 234.320724 296.743866 
conv_148_param_0 173.628845 338.226257 299.822479 293.562073 253.258026 196.744324 182.267700 194.246460 188.612045 187.524155 204.156982 211.632217 227.158081 278.923309 282.406067 259.188843 246.070007 230.786163 299.304962 266.765137 252.765793 189.436264 193.956741 186.716446 162.458466 184.203964 214.600662 230.786163 246.536499 270.229614 254.248291 249.852066 213.018845 319.136200 309.269928 237.313873 200.536621 195.120773 195.267273 197.341431 220.420334 214.777863 233.689133 255.874084 295.899872 261.929504 285.349426 299.649780 229.969940 224.414154 271.357330 255.497055 246.070007 252.275467 276.403839 211.804565 229.159470 197.491272 234.955734 257.138916 279.823547 291.097931 260.226105 260.356354 
convdw_184_param_0 153.630249 148.118454 164.721970 109.560234 134.347107 217.108521 113.183640 101.998428 157.062805 82.833122 148.034149 246.070007 76.860519 136.461700 128.696686 213.018845 174.444000 264.190948 158.982880 144.578094 77.501785 135.891327 214.600662 44.813232 89.380066 240.829636 131.627533 258.416290 150.692932 195.855423 113.479927 143.145844 107.566582 85.054283 152.907700 252.765793 98.521210 79.491440 40.064079 165.035538 185.782852 98.149437 149.137619 92.101982 152.638504 126.629013 232.228577 167.371948 238.839310 258.673309 100.113937 156.778778 269.669250 263.255066 126.382896 132.973419 204.638870 214.070786 67.104233 84.832352 144.981049 115.804092 299.304962 186.181824 
conv_149_param_0 1176.239624 598.265686 662.664978 904.681763 610.912537 1213.983643 728.560242 649.428223 822.437927 482.105652 498.268188 671.215454 1307.015015 421.549438 458.723114 1640.984253 870.614197 544.133911 308.353302 539.059082 444.228851 892.267578 523.595398 1388.104126 897.656616 744.727295 830.977661 633.222168 1004.231689 455.111115 682.218994 681.771973 1027.032593 462.804260 1328.715210 913.418762 620.384033 757.745056 1428.118042 486.160736 667.768921 472.043549 493.540802 555.463989 1366.229858 888.457703 966.899658 1235.610474 1062.158203 1037.789551 856.988464 735.773682 886.187378 951.860962 473.763214 398.920258 535.728088 715.040527 788.169678 284.880615 673.823853 738.384644 802.765442 895.339050 
conv_150_param_0 444.228851 169.333328 297.422516 260.747864 377.497833 258.287994 264.998474 253.504868 420.187408 259.836151 490.747162 280.578217 198.395111 283.174744 291.260925 478.998169 260.486725 252.765793 471.615601 251.300476 230.786163 237.530594 364.535400 401.382721 229.361557 333.242798 319.332092 228.957748 234.743683 312.052795 387.047607 552.220825 297.422516 335.607727 257.393372 235.168167 263.922882 272.923401 362.250702 249.134094 337.348907 461.163116 247.239548 243.992493 213.193436 180.371704 167.803864 316.034027 200.073853 267.450897 393.191223 311.119629 249.134094 124.806145 361.998596 302.613159 365.303375 236.236145 132.702042 397.093140 366.332397 242.175049 432.772034 193.523804 
conv_151_param_0 292.242706 253.258026 322.499695 257.520782 302.261475 291.914703 257.266083 344.954895 340.217133 442.340149 342.456879 177.539932 257.393372 275.233856 214.600662 318.549896 236.021774 315.842133 341.333344 229.969940 280.275848 248.657745 399.533020 343.587860 288.354767 347.257690 252.765793 178.026016 243.307770 270.651398 338.446320 367.886841 382.213074 286.291687 333.242798 320.315277 178.147949 273.641235 252.765793 325.730743 203.041367 246.303024 394.084839 197.341431 413.178711 257.520782 309.822510 458.723114 259.576843 299.822479 356.540100 362.755920 248.895691 254.124084 210.604050 309.638092 398.920258 384.189056 347.721924 386.759857 314.315399 249.134094 232.021408 255.874084 
conv_152_param_0 55.545055 55.496502 37.084110 60.928982 30.435284 27.341946 48.133434 51.996723 38.618004 63.871227 60.178200 98.890968 52.253498 31.352098 55.936565 47.414490 38.500908 46.173092 59.501408 61.698738 52.469421 69.461708 44.459385 61.579048 51.784664 40.828297 26.299917 38.949692 23.306902 47.485416 50.668797 39.190125 56.584671 29.918945 31.523336 32.309414 59.725307 50.628387 47.273270 62.611439 43.013550 48.724483 70.699333 31.633284 63.235062 34.523109 52.687138 38.949692 54.309666 46.511356 159.718246 81.656593 32.358818 145.531235 54.216908 63.077991 69.234459 133.308136 29.122936 29.149679 51.158745 62.090954 37.812984 124.242661 
conv_153_param_0 264.459595 
conv_154_param_0 109.840828 88.177780 67.829063 173.346069 214.849411 166.307800 85.218788 63.519760 77.048546 112.667259 88.239052 265.362579 76.033531 94.405945 91.547226 144.127121 125.718811 97.150726 156.663788 269.588104 114.392792 77.471626 139.687576 160.222076 86.260872 115.432724 86.850891 107.789474 100.614899 379.599396 343.178375 137.942429 99.981102 128.388275 112.268791 107.606781 110.031197 64.717636 235.140747 118.007439 75.580956 303.226257 147.818390 67.218636 91.613274 66.375328 149.912628 56.184071 135.875870 87.148933 126.659355 99.045242 144.127121 65.519089 168.738876 88.608513 93.847748 127.485947 134.224106 93.640121 137.494308 133.940933 200.593994 106.256065 
conv_155_param_0 172.991821 126.407166 242.089615 319.235687 97.076454 253.825089 178.211929 337.926819 283.270508 213.944397 221.405411 128.129166 146.285721 177.217026 138.620087 150.356430 188.671616 130.566574 153.910309 319.637512 174.657501 142.990997 130.768280 134.295074 113.169342 168.626831 151.522675 278.456146 161.239365 135.730621 327.046997 202.513550 246.555344 210.225159 231.075516 101.015114 170.323273 119.226288 179.218063 108.898796 133.588638 131.854614 109.085907 180.748749 154.848785 341.792725 64.750641 108.712326 240.257339 103.738564 189.799698 232.344009 279.991180 102.235107 170.437576 149.032867 248.606949 349.315002 159.317444 167.957672 150.534683 115.854012 129.832306 153.075348 
conv_156_param_0 44.397202 63.298107 45.380985 67.648376 61.698738 48.761906 60.007561 55.206955 115.537758 53.621620 90.310097 35.408813 53.803391 68.635674 47.592205 73.481483 36.976120 48.169956 89.105965 74.038483 62.182175 47.414490 85.104561 41.740959 52.124794 81.761749 37.345882 40.438217 61.579048 46.072571 44.242508 41.172504 44.304256 30.003780 40.335449 55.985889 43.604397 42.156708 77.613693 70.581436 44.709858 75.897194 47.414490 36.997669 74.385475 75.311981 41.495426 41.333332 57.042229 46.889217 52.906666 44.180931 57.768879 36.072727 48.316589 78.818123 52.556290 83.317589 121.044807 37.170959 62.673248 50.588047 48.612556 33.205021 
conv_157_param_0 860.532654 442.716583 436.036896 488.902252 246.070007 182.651688 443.471436 330.700562 276.403839 421.208099 209.248596 176.936050 418.834137 485.706818 226.564453 178.883087 326.753754 748.477722 597.235352 226.761993 565.733521 385.613037 539.618286 443.471436 298.446350 599.644958 339.329407 493.540802 285.036713 199.307281 472.043549 323.905365 455.908844 350.533691 175.385025 523.595398 196.595612 273.066681 234.743683 248.420242 475.061188 419.848267 516.319580 316.803894 425.340973 322.900055 373.164978 323.502502 596.208618 385.042206 123.619774 430.266327 235.594208 433.854889 234.109818 236.236145 310.192017 489.822968 267.726196 350.061920 202.566971 202.251938 252.765793 340.662750 306.175385 267.864044 405.133942 289.156189 336.693848 294.059906 392.006042 408.634735 502.115845 443.093689 207.578613 453.128906 234.955734 127.373161 614.884155 281.184875 354.354218 619.645020 397.093140 418.160767 454.713287 426.386871 294.059906 297.422516 326.959137 521.234497 228.354691 544.133911 209.924133 447.669525 355.808472 239.940964 524.122925 209.248596 500.666016 347.721924 303.850464 209.924133 155.096008 279.673126 285.506042 218.201340 232.644012 293.396515 170.108566 400.455750 383.057434 352.194977 270.229614 556.950745 559.346252 217.653549 200.536621 483.000916 414.165619 302.789276 419.171631 148.287338 340.662750 263.255066 310.562378 300.689026 169.664703 308.902618 
conv_158_param_0 984.280029 178.760132 532.438049 1127.787476 413.178711 1022.490417 770.084412 876.481873 291.587433 549.015320 1053.553467 264.459595 1099.190674 433.854889 253.011673 1369.827515 269.389954 290.772491 347.026031 946.664246 1049.832520 801.528503 574.797791 906.257812 211.977173 866.264771 208.744781 396.790222 1766.356567 859.111450 1147.060669 875.007568 284.568939 919.879761 1998.816528 647.810730 911.019287 379.702179 194.246460 1319.447021 919.067139 320.315277 223.642303 781.655884 852.075378 970.507446 227.158081 617.805237 1099.771729 216.206146 230.991119 765.551147 225.191345 241.500458 394.084839 481.659271 225.191345 1044.562256 398.614563 1063.787354 1413.565186 250.333008 350.061920 902.327820 341.557465 175.740540 316.611084 1086.562866 256.252228 1022.993103 517.089478 1157.268066 410.246063 782.243591 279.673126 528.381897 293.893799 1516.594727 199.460129 280.881195 208.076797 244.451126 259.318054 839.019348 958.879272 362.503143 187.524155 344.954895 1142.024170 1088.837280 704.389954 1306.194580 284.568939 1382.570068 766.679443 704.867188 507.504395 771.226074 1917.758545 310.377075 431.694611 315.076935 1274.199585 420.867310 483.000916 637.881042 1519.918213 322.100311 524.916260 506.023346 285.976898 412.196503 572.583374 611.990601 287.557770 371.831299 235.594208 966.899658 659.305420 338.887299 551.635193 529.188171 593.487732 146.203491 226.367279 166.514725 298.275238 1096.872925 206.098251 236.881607 635.543091 1203.451660 1492.659912 1523.256226 194.828461 1136.410645 571.012085 1548.190430 798.452820 592.811401 675.574036 937.282898 1676.686523 286.923340 917.446228 947.526428 1313.616211 824.393005 396.185822 321.304504 1221.108032 1034.693237 1409.734375 285.819794 654.329590 823.740295 352.911804 276.697876 302.789276 286.449341 469.064026 694.052063 620.754150 1163.089966 298.789215 203.677368 443.093689 241.500458 325.323334 845.153503 1433.035767 197.791641 1379.819580 710.159729 377.771973 234.109818 696.374817 736.815857 582.848206 414.826141 822.437927 190.966232 1199.289917 662.243164 187.930634 1475.722046 365.560089 245.142319 607.700928 315.842133 818.555481 1440.975098 836.994385 322.299866 449.604156 276.403839 339.772705 813.435486 1152.780029 1375.259766 1173.586060 907.839417 390.534546 562.673889 449.604156 1415.488403 789.365723 705.345093 1145.797363 1432.049561 1433.035767 456.709381 280.578217 308.902618 1338.114502 469.487366 202.409332 755.543945 1279.685059 1469.468872 1457.120483 1128.399170 223.450165 758.297363 206.589355 1316.108765 618.539856 578.312378 524.651550 390.241547 371.565704 1181.583252 221.924911 419.171631 744.727295 587.124146 465.704559 301.735504 1423.233887 999.408264 283.947601 876.481873 1379.819580 257.903809 310.377075 245.142319 507.504395 354.837646 1204.845337 279.522827 601.725830 1016.000000 254.871140 478.117645 1871.194214 451.555542 
conv_159_param_0 287.276031 281.387268 486.498077 339.735107 171.937714 237.560333 301.605713 262.890259 282.168884 362.788574 248.363815 199.804871 266.336639 144.619583 285.821045 310.454773 332.833557 210.573792 260.597229 305.414307 219.681656 221.986008 231.496811 295.808960 154.566040 155.990173 249.829803 348.835175 269.588104 269.874603 242.089615 195.498077 169.527374 175.018600 252.562897 198.399994 237.782776 197.167709 343.642761 311.980347 204.634979 294.437103 440.124786 305.598083 279.528900 571.963989 236.674744 349.796143 279.528900 241.859055 192.679825 344.809235 279.528900 175.623795 258.738678 306.335358 285.660278 270.161713 262.347107 222.960495 273.213562 222.960495 328.315460 190.654648 
convdw_185_param_0 376.677765 509.492645 29.937386 105.216827 105.816109 62.946758 95.343109 94.580360 215.489639 35.474087 38.182034 221.546844 70.678261 39.053455 342.682465 68.663147 201.781219 158.595123 156.778778 59.166515 22.577778 121.540184 53.254711 77.271538 199.613205 61.809887 416.486786 161.149933 70.448540 173.744827 97.927711 77.966431 346.563629 39.313179 55.671234 54.231861 75.873978 100.268311 271.782654 50.134155 100.734314 267.313477 228.154388 52.994293 53.124184 53.211128 162.154617 65.680809 79.931160 235.168167 184.858566 146.368042 381.093048 384.473022 146.946899 151.218597 144.177383 72.128677 206.918060 38.889954 99.806602 296.574677 86.698669 27.552542 288.995544 221.358292 246.303024 60.375114 214.423737 73.765175 163.788406 71.220154 197.341431 60.096119 273.210083 245.373581 401.073242 62.283524 194.974518 132.364380 252.765793 190.546524 233.269958 168.674454 142.596497 154.911255 428.847473 300.168488 89.750175 112.303970 39.100422 53.211128 100.191063 63.068867 44.294277 134.001038 141.741684 60.207409 99.806602 198.698242 127.248535 304.562073 42.891819 160.652252 153.177856 53.605934 113.977211 348.654144 108.463722 234.743683 137.471466 229.766785 70.334236 123.855240 182.012604 108.826775 339.550903 75.785545 45.566925 247.239548 116.530464 84.446754 42.333332 118.873856 244.911484 233.479355 272.209320 105.302025 372.363647 308.536194 40.113510 142.909897 102.886078 44.384983 280.729614 92.957825 66.182190 101.838684 67.069626 35.319935 49.186081 61.634125 84.943176 152.907700 57.239437 95.553268 109.652611 57.799110 129.529877 88.648941 136.533340 86.583221 47.084721 213.718979 68.844894 61.285580 49.111782 113.380997 179.872757 216.386017 219.120468 42.250813 109.100670 86.640907 122.340546 161.550308 234.743683 104.121696 311.678864 34.605640 88.709412 213.718979 198.243896 89.936378 146.039307 319.332092 158.691879 35.015617 165.140320 110.585037 94.442993 198.395111 49.037708 91.712273 182.908585 50.602333 102.723541 364.535400 28.100260 440.467407 19.352381 67.487289 168.129288 105.816109 127.000000 140.897079 153.902954 154.085312 42.694683 79.152771 77.733414 61.170273 216.206146 180.747742 146.532959 44.598080 46.018402 67.627663 44.143925 40.563942 45.566925 72.774483 282.559479 324.714111 50.484470 88.769966 234.743683 90.752266 75.215729 61.459358 64.157867 84.227982 352.433594 95.764359 148.118454 49.372818 87.515480 96.403259 42.527142 114.478874 199.154678 88.287849 172.135010 175.859360 127.498039 94.169441 170.108566 105.730080 48.707115 67.138878 312.803375 45.662922 46.914864 184.465256 200.691360 179.006195 122.225563 301.211334 55.718937 263.388367 45.249825 55.151825 301.910614 148.456619 82.413177 166.835144 
conv_160_param_0 35.329994 79.360001 91.679420 119.450615 56.035305 69.920708 71.535774 72.350998 89.545837 42.580818 112.368141 64.487556 116.705879 90.053902 72.557716 62.704197 142.190369 105.813332 67.254234 93.640121 67.901604 118.891388 64.096924 62.000000 73.866203 74.298424 32.878300 31.060665 95.327324 57.351398 114.495941 46.409355 73.269478 159.617844 55.303135 96.121117 81.972885 57.042229 35.567509 90.053902 77.756279 100.138802 44.804516 35.271111 94.899849 120.584991 91.679420 64.161697 138.695801 27.460207 115.854012 57.455204 78.965172 74.168221 57.559383 83.536842 113.068565 60.121212 154.472015 97.749039 79.211479 76.769043 61.758755 108.992271 
conv_161_param_0 281.184875 830.314453 718.001404 512.252075 678.216431 663.933655 505.531586 495.420959 642.212341 627.872070 942.376831 561.459229 603.471008 607.346191 734.734436 540.740112 502.115845 714.549438 520.192017 561.156433 474.195068 450.382690 719.988953 598.609924 601.378052 513.009888 743.662598 573.846680 820.492126 498.745911 918.255981 545.846802 710.159729 625.983154 764.426147 506.516052 606.991821 610.912537 583.829407 678.216431 809.007751 519.672302 815.987427 849.293091 541.866638 877.961182 558.745422 430.979279 448.441376 654.741333 662.243164 421.208099 750.096619 668.627258 742.071350 684.463135 750.096619 851.378052 490.747162 669.057251 428.494232 758.850464 545.560547 653.507507 
conv_162_param_0 256.252228 244.911484 342.682465 405.449738 323.703796 208.577393 204.961380 220.794571 244.451126 255.497055 253.011673 258.416290 301.037048 523.331970 789.965088 671.215454 282.406067 234.109818 307.260498 299.649780 216.927444 174.795700 203.677368 213.193436 190.128662 179.624313 190.966232 197.341431 259.059753 394.982544 660.561279 710.159729 276.992554 296.236908 312.052795 397.093140 312.052795 203.836990 211.116882 181.504532 226.367279 218.384552 243.080368 279.222748 313.368683 408.955963 710.644836 694.515381 324.511536 270.933319 369.192322 308.536194 270.510651 219.120468 232.228577 184.596161 188.885986 240.162506 257.648346 313.180023 267.313477 319.136200 503.087036 577.029419 
convdw_186_param_0 70.755165 182.780045 68.772079 64.604073 146.698257 148.456619 256.378510 66.014214 157.157700 110.491081 92.560852 288.035431 241.276443 194.391632 106.248367 113.877411 52.312149 239.940964 71.064484 97.487259 158.691879 42.032322 168.674454 101.599998 106.947365 99.273285 199.154678 132.095474 142.674713 78.578850 144.578094 163.274323 100.734314 148.118454 180.371704 153.811951 198.850159 32.237976 98.820671 142.051331 124.091606 152.907700 124.091606 122.225563 104.456223 151.571091 141.818970 149.223175 111.629181 121.426704 83.204094 116.634979 119.639374 93.224373 154.268097 97.268509 66.520714 218.936020 205.935074 141.664490 74.017075 204.317368 72.856026 184.727280 
conv_163_param_0 215.311264 293.065918 369.454559 290.935120 259.059753 239.719818 382.775574 449.215881 310.192017 246.070007 296.405701 326.753754 387.913483 181.251572 310.933655 322.299866 294.392761 483.899536 323.502502 173.977264 397.093140 233.479355 509.492645 310.747894 307.805908 310.562378 229.969940 374.508270 218.018448 422.233765 146.121353 318.549896 348.654144 123.737396 323.301422 325.934845 273.785278 403.875763 258.159790 414.165619 365.560089 358.505859 233.060928 409.922760 284.102661 331.543671 334.959442 343.587860 200.227875 385.613037 301.560577 385.327393 204.961380 256.631470 339.550903 290.772491 273.929443 217.835846 288.035431 224.996536 390.241547 404.818665 185.121704 329.861755 
conv_164_param_0 244.221603 
conv_165_param_0 8.466666 
conv_85 128.855057 
conv_86 17.722013 
conv_87 15.354822 
conv_88 42.521149 
conv_89 117.106270 
conv_90 18.750095 
conv_91 40.214561 
conv_92 37.972881 
conv_93 87.832451 
conv_94 114.019394 
conv_95 38.890026 
conv_96 451.966370 
conv_97 56.500759 
conv_98 106.550781 
conv_99 106.550781 
conv_100 94.564934 
conv_101 453.737457 
conv_102 51.345387 
conv_103 181.300018 
conv_104 24.853298 
conv_105 74.632416 
conv_106 77.995010 
conv_107 53.293392 
conv_108 71.165253 
conv_109 71.165253 
conv_110 152.474396 
conv_111 85.143494 
conv_112 33.779278 
conv_113 49.758144 
conv_114 24.793186 
conv_115 45.846539 
conv_116 38.998226 
conv_117 23.218357 
conv_118 38.976936 
conv_119 14.169725 
convdw_180 17.603430 
conv_120 27.669296 
conv_121 11.536475 
conv_122 56.670128 
conv_123 14.183127 
conv_124 71.155151 
conv_125 74.488930 
conv_126 85.213715 
conv_127 49.532253 
conv_128 88.544205 
conv_129 71.102119 
conv_130 42.615589 
conv_131 46.172153 
conv_132 49.573700 
conv_133 49.573700 
convdw_181 49.573700 
conv_134 70.946144 
conv_135 24.908617 
conv_136 74.391838 
conv_137 14.153882 
convdw_182 38.988235 
conv_138 67.515701 
conv_139 24.736280 
conv_140 53.242561 
conv_141 42.458649 
conv_142 38.923801 
conv_143 60.408363 
conv_144 60.408363 
convdw_183 60.408363 
conv_145 28.435020 
conv_146 24.893072 
conv_147 71.155151 
conv_148 10.612981 
convdw_184 49.603870 
conv_149 81.880165 
conv_150 81.880165 
conv_151 28.371672 
conv_152 170.591324 
conv_153 39.021271 
conv_154 67.383255 
conv_155 26.729181 
conv_156 71.039894 
conv_157 21.182787 
conv_158 42.637283 
conv_159 35.393200 
convdw_185 35.393200 
conv_160 21.117985 
conv_161 24.760098 
conv_162 10.654139 
convdw_186 49.554775 
conv_163 24.818213 
conv_164 31.828548 
conv_165 221.775665 
